<unk>	0
<s>	0
</s>	0
[PAD]	0
[CLS]	0
[SEP]	0
[MASK]	0
▁の	-3.29292
▁、	-3.34769
▁	-3.61267
▁。	-3.62243
▁に	-3.6829
▁は	-3.83491
▁た	-3.94781
▁を	-3.9729
▁で	-4.10481
▁が	-4.22002
▁と	-4.26948
▁て	-4.45553
▁し	-4.45645
▁年	-4.52338
▁(	-4.83514
▁)	-4.86044
▁れ	-4.86408
る	-5.07551
▁さ	-5.09709
▁・	-5.26831
▁月	-5.33695
▁ある	-5.34137
▁いる	-5.37068
▁「	-5.40703
▁な	-5.42753
▁」	-5.43757
・	-5.45222
▁する	-5.45812
▁も	-5.51291
▁から	-5.59015
▁日	-5.63541
い	-5.71858
っ	-5.81248
▁2	-5.86534
して	-5.93961
▁い	-5.94151
▁こと	-5.963
▁1	-5.96967
▁『	-5.98493
▁』	-6.03688
▁人	-6.07895
▁-	-6.16045
▁3	-6.17734
▁や	-6.23606
く	-6.24978
▁大	-6.26955
▁出	-6.29125
て	-6.31402
▁201	-6.33215
▁なっ	-6.33333
▁その	-6.36852
し	-6.41913
▁4	-6.44872
▁中	-6.4502
▁郡	-6.4591
▁この	-6.46483
ど	-6.47088
▁第	-6.52176
▁日本	-6.53055
▁発	-6.53953
▁後	-6.55947
り	-6.56244
場	-6.56514
▁200	-6.60261
▁ない	-6.62153
合	-6.62645
▁一	-6.63354
▁ため	-6.64667
▁られ	-6.64694
▁市	-6.6525
▁行	-6.67508
▁作	-6.6785
▁5	-6.70819
▁戦	-6.71237
▁以	-6.72391
に	-6.72746
▁的	-6.73248
▁地	-6.762
▁学	-6.76344
▁者	-6.77647
▁部	-6.79534
0	-6.82006
▁あり	-6.82453
▁6	-6.83344
3	-6.83713
う	-6.83737
▁よう	-6.83843
まで	-6.83986
▁同	-6.85255
▁7	-6.85437
▁へ	-6.86265
▁県	-6.87863
▁あっ	-6.88012
▁.	-6.88631
▁によ	-6.89053
ら	-6.90267
▁また	-6.9072
定	-6.91186
▁なる	-6.92375
ス	-6.92969
▁本	-6.93149
▁10	-6.93645
校	-6.95536
▁8	-6.96224
▁会	-6.96522
▁回	-6.96587
▁時	-6.98222
会	-6.99399
▁名	-7.00048
子	-7.00479
4	-7.02757
ん	-7.02968
人	-7.05015
▁,	-7.05902
▁開	-7.06229
▁上	-7.06255
▁だ	-7.07165
国	-7.07188
成	-7.07238
▁という	-7.07636
▁もの	-7.08161
9	-7.08274
▁公	-7.10098
▁初	-7.11368
6	-7.11935
▁自	-7.12281
▁9	-7.12393
動	-7.12883
8	-7.14019
身	-7.14969
▁"	-7.15154
わ	-7.15764
7	-7.159
▁前	-7.16284
立	-7.17314
す	-7.17396
後	-7.17968
▁全	-7.19089
▁か	-7.19106
▁町	-7.19652
▁州	-7.19933
▁内	-7.20718
戦	-7.2235
演	-7.22739
▁多	-7.22767
▁新	-7.23111
▁主	-7.23303
▁分	-7.23464
▁12	-7.23849
か	-7.24029
▁最	-7.24061
▁より	-7.25907
▁家	-7.26026
用	-7.26198
間	-7.26229
▁199	-7.26275
▁おり	-7.27059
体	-7.27165
表	-7.27567
▁活	-7.28782
生	-7.30272
地	-7.30302
▁北	-7.30499
部	-7.30647
社	-7.3065
▁当	-7.31068
▁せ	-7.31898
▁世界	-7.32207
▁登	-7.32771
長	-7.33272
つ	-7.33459
▁だっ	-7.34426
▁これ	-7.34896
って	-7.34918
▁所	-7.35351
▁位	-7.35706
5	-7.35767
▁国	-7.36361
品	-7.36624
▁入	-7.36676
▁11	-7.36797
み	-7.37757
▁場	-7.3829
行	-7.3984
映画	-7.40124
▁選	-7.40208
▁現在	-7.40395
所	-7.41507
代	-7.4153
▁高	-7.42179
▁アメリカ	-7.42246
上	-7.4306
▁機	-7.43097
▁元	-7.43769
▁選手	-7.44163
▁長	-7.44444
者	-7.44743
▁番	-7.44989
▁198	-7.45214
▁特	-7.46381
▁連	-7.46713
さ	-7.47041
事	-7.47197
域	-7.4728
名	-7.47313
▁小	-7.47468
かっ	-7.47817
勝	-7.48123
▁軍	-7.4831
分	-7.4983
▁m	-7.4994
田	-7.50395
▁実	-7.50855
s	-7.51269
力	-7.5222
出	-7.52316
▁ず	-7.52772
▁生	-7.53521
▁設	-7.53838
▁代	-7.54869
▁参	-7.55235
▁それ	-7.55239
作	-7.56224
年	-7.56782
▁対	-7.57607
▁村	-7.57679
び	-7.57977
ン	-7.58176
▁下	-7.58425
▁指	-7.58815
▁通	-7.58952
▁目	-7.59157
より	-7.60591
点	-7.61296
2	-7.6166
物	-7.61941
下	-7.62085
▁三	-7.62356
▁数	-7.62424
▁:	-7.62573
▁南	-7.6273
▁世	-7.6276
目	-7.62911
▁20	-7.63313
々	-7.63416
▁形	-7.64158
▁制	-7.64855
▁区	-7.65317
▁19	-7.65549
▁なり	-7.65705
ー	-7.66471
▁昭和	-7.67405
1	-7.67866
能	-7.68089
も	-7.68453
▁つ	-7.68648
線	-7.68745
性	-7.68936
▁結	-7.69066
▁現	-7.69792
▁進	-7.70197
▁東京	-7.70216
▁次	-7.70266
ル	-7.70612
▁女	-7.70661
加	-7.70677
川	-7.71588
▁化	-7.71599
▁二	-7.71808
▁再	-7.71862
▁水	-7.71887
▁受け	-7.71942
▁号	-7.7223
▁性	-7.72585
▁移	-7.73423
属	-7.73485
れ	-7.73529
▁経	-7.73756
▁時代	-7.74145
時	-7.74348
▁放送	-7.74756
き	-7.74797
口	-7.75184
▁西	-7.75566
山	-7.7631
期	-7.76424
ト	-7.76768
館	-7.78069
曲	-7.78077
度	-7.78576
本	-7.7897
▁試	-7.79351
式	-7.79465
隊	-7.79689
▁事	-7.80271
▁197	-7.81366
前	-7.81879
手	-7.82378
任	-7.8243
来	-7.82513
入	-7.82534
▁におい	-7.82576
▁持	-7.82754
▁系	-7.83005
む	-7.83205
党	-7.83628
在	-7.83749
▁間	-7.84268
▁教	-7.84271
▁なく	-7.848
▁彼	-7.85382
得	-7.85425
売	-7.85745
▁18	-7.85792
▁体	-7.85821
権	-7.86064
▁他	-7.87172
▁できる	-7.8734
要	-7.87432
▁基	-7.87685
▁ば	-7.87786
▁手	-7.88204
▁曲	-7.88217
学	-7.88593
▁古	-7.89348
▁使用	-7.89809
▁優	-7.90251
画	-7.9036
記録	-7.90981
▁万	-7.9104
▁テレビ	-7.91131
▁駅	-7.91472
▁道	-7.92269
催	-7.92277
▁歌	-7.92354
▁監	-7.92452
外	-7.9281
内	-7.92829
日	-7.9284
中	-7.9358
▁2012	-7.93806
▁研究	-7.93879
▁同年	-7.94091
員	-7.94258
初	-7.94432
▁196	-7.94756
▁法	-7.94761
優	-7.94903
する	-7.95192
▁約	-7.95477
数	-7.95592
▁東	-7.95654
ついて	-7.96282
▁しかし	-7.96539
開	-7.96848
▁近	-7.97131
▁う	-7.97168
▁15	-7.97244
島	-7.97634
▁各	-7.97808
組	-7.97886
団	-7.9802
▁表	-7.98173
▁方	-7.9863
の	-7.99091
▁王	-7.99449
▁山	-7.99798
▁195	-8.00035
▁艦	-8.00039
▁/	-8.00426
車	-8.00448
大学	-8.0132
▁大学	-8.01674
撃	-8.02057
督	-8.02137
ズ	-8.02223
▁海	-8.02282
▁=	-8.0246
ま	-8.02649
▁改	-8.02831
▁正	-8.02835
▁川	-8.02964
▁役	-8.03115
▁収	-8.03366
▁死	-8.0349
▁級	-8.03866
▁種	-8.0422
▁反	-8.04273
▁お	-8.04273
▁賞	-8.04368
▁版	-8.04816
▁無	-8.04872
▁得	-8.04983
様	-8.04997
心	-8.05054
▁およ	-8.0558
衆	-8.05713
▁平成	-8.059
称	-8.06201
▁語	-8.06275
▁0	-8.06526
▁存	-8.06858
▁子	-8.06865
▁記	-8.07454
当	-8.07566
▁構	-8.07924
▁競	-8.0835
見	-8.08688
▁期	-8.09131
格	-8.09431
区	-8.09631
▁き	-8.09682
▁勝	-8.09751
載	-8.10305
野	-8.10674
▁務め	-8.10743
▁||	-8.10962
技	-8.10982
▁政	-8.11048
▁ほ	-8.11126
▁歳	-8.1114
▁原	-8.11262
挙	-8.11497
面	-8.11537
▁可	-8.11734
▁見	-8.11753
約	-8.12429
▁話	-8.12794
▁度	-8.13303
▁等	-8.13325
録	-8.13454
▁%	-8.13982
▁解	-8.14056
▁受	-8.14197
▁両	-8.14216
明	-8.14355
▁よ	-8.14426
▁獲	-8.14724
▁チーム	-8.15068
▁17	-8.1519
化	-8.15211
アルバム	-8.15232
▁社	-8.15838
位	-8.15856
産	-8.15872
▁組	-8.16331
▁16	-8.16442
▁たち	-8.17254
理	-8.17585
▁卒業	-8.17664
▁変	-8.17737
▁車	-8.17783
▁でき	-8.18221
た	-8.18329
軍	-8.18468
賞	-8.18612
ば	-8.18668
▁a	-8.18913
▁配	-8.19053
▁成	-8.19282
▁劇	-8.19297
語	-8.19621
▁金	-8.1976
民	-8.19763
道	-8.20326
▁デビュー	-8.20688
▁ゲーム	-8.20818
▁物	-8.2113
▁集	-8.21233
▁決	-8.21355
▁平	-8.21464
▁14	-8.21542
▁同じ	-8.21626
▁30	-8.2206
▁そ	-8.22191
▁団	-8.22202
▁演	-8.22288
家	-8.22635
▁ら	-8.22644
法	-8.22647
で	-8.22742
▁周	-8.22785
▁重	-8.22909
▁小学	-8.23081
的	-8.23131
降	-8.23522
▁支	-8.23802
▁194	-8.23878
▁生まれ	-8.24062
方	-8.24128
▁総	-8.24242
▁有	-8.24504
▁音楽	-8.24509
▁ポケモン	-8.2479
▁km	-8.24844
▁提	-8.24874
▁2011	-8.24878
▁点	-8.24944
月	-8.24948
▁書	-8.24984
士	-8.25768
院	-8.25887
▁状	-8.25927
▁13	-8.26022
▁型	-8.26155
▁編	-8.26456
▁個	-8.26624
▁派	-8.26974
▁声	-8.27035
▁直	-8.27266
態	-8.27269
業	-8.27326
ける	-8.27396
▁25	-8.27415
▁英	-8.27586
▁野	-8.28013
▁石	-8.28025
▁含	-8.28501
▁先	-8.2866
原	-8.2927
役	-8.29716
計	-8.29842
▁シングル	-8.30214
木	-8.30382
▁合	-8.3049
退	-8.30491
▁担	-8.30588
▁台	-8.30646
▁国際	-8.31063
置	-8.31133
類	-8.31447
▁イギリス	-8.31652
▁言	-8.3177
▁呼ば	-8.31909
一	-8.31983
▁利	-8.32014
籍	-8.32035
▁予	-8.32039
▁運	-8.32145
▁時間	-8.32187
題	-8.32467
▁ア	-8.32801
▁リーグ	-8.32979
▁一部	-8.33357
とも	-8.33603
去	-8.33892
▁残	-8.34058
▁使	-8.34113
▁不	-8.34204
気	-8.34365
大	-8.34384
果	-8.34522
▁官	-8.34551
▁王座	-8.34792
造	-8.351
▁保	-8.35282
続	-8.35437
▁強	-8.36228
▁理	-8.36274
▁神	-8.36362
▁男	-8.36384
▁用	-8.36574
▁中国	-8.36628
害	-8.36897
族	-8.36976
始	-8.37074
▁考え	-8.37115
▁アニメ	-8.37335
▁際	-8.37383
シリーズ	-8.37758
▁外	-8.3791
説	-8.37924
▁ニューヨーク	-8.3806
争	-8.38368
路	-8.3852
▁位置	-8.3854
利	-8.3952
▁協	-8.39802
▁枚	-8.39948
委員	-8.40078
▁フランス	-8.40249
▁陸	-8.40413
素	-8.40414
▁島	-8.40848
▁ドラマ	-8.40928
▁明治	-8.40972
▁観	-8.41033
▁24	-8.41423
▁付	-8.41697
▁電	-8.41807
▁共	-8.41909
▁武	-8.42015
▁安	-8.42564
別	-8.42656
▁流	-8.42879
府	-8.43099
▁シーズン	-8.43409
▁建	-8.43651
▁終	-8.44142
▁局	-8.4442
流	-8.44712
▁館	-8.44728
共	-8.44821
▁21	-8.45026
議	-8.45503
▁中学	-8.45589
▁23	-8.45902
授	-8.46194
了	-8.46293
らに	-8.46514
▁都	-8.46785
▁就	-8.46951
記	-8.47086
墳	-8.47131
▁線	-8.47339
▁翌	-8.47869
▁科	-8.47965
▁だけ	-8.48264
▁ドイツ	-8.4865
紀	-8.48737
▁円	-8.48811
▁広	-8.48877
ラ	-8.4896
▁面	-8.49136
▁に対	-8.49303
▁にお	-8.49554
▁22	-8.49617
命	-8.49893
発	-8.50125
▁父	-8.5014
言	-8.5021
▁メンバー	-8.50431
▁なお	-8.50462
▁続	-8.50534
▁投	-8.50588
▁歴	-8.50663
▁s	-8.50677
▁統	-8.50754
▁交	-8.50853
e	-8.50868
▁独	-8.50906
▁伝	-8.50927
▁破	-8.51068
像	-8.51756
▁女子	-8.52239
▁権	-8.52399
▁側	-8.52895
&	-8.53106
▁始め	-8.53261
▁楽	-8.53494
▁うち	-8.53882
▁追	-8.5439
務	-8.54547
▁要	-8.54827
頃	-8.55115
鉄道	-8.55204
▁高校	-8.55243
▁達	-8.55426
▁民	-8.55589
▁!	-8.55595
質	-8.55707
▁知ら	-8.55759
意	-8.5585
▁退	-8.55947
▁従	-8.56036
ア	-8.56187
色	-8.56251
▁座	-8.56285
▁別	-8.56323
▁d	-8.56359
▁b	-8.56396
▁リリー	-8.5656
▁開発	-8.56643
ぶ	-8.56668
球	-8.56762
備	-8.56999
▁かつ	-8.57167
▁ながら	-8.5717
郎	-8.57228
▁初め	-8.5723
信	-8.57249
▁プロ	-8.57324
統	-8.57542
史	-8.57898
▁工	-8.58048
▁米	-8.58115
告	-8.5841
▁文	-8.58477
常	-8.58556
ち	-8.5861
列	-8.58627
▁とき	-8.58875
▁大き	-8.58901
現	-8.58926
▁関係	-8.59227
高等	-8.59293
▁the	-8.59452
▁未	-8.59473
▁旧	-8.59643
▁193	-8.59747
いう	-8.59786
離	-8.59831
師	-8.59903
容	-8.59943
転	-8.60008
▁相	-8.60104
▁判	-8.60176
盤	-8.6033
▁描	-8.60731
▁白	-8.60979
▁確	-8.60987
▁今	-8.61137
▁天	-8.61348
持	-8.61568
▁中央	-8.61662
議員	-8.61788
▁星	-8.62109
▁攻	-8.62126
▁計	-8.62257
通	-8.62278
着	-8.62481
▁26	-8.62687
▁用い	-8.63023
▁明	-8.63041
回	-8.63114
▁群	-8.63177
書	-8.63198
▁必	-8.63294
▁創	-8.63574
▁w	-8.63595
崎	-8.63857
女	-8.63937
▁限	-8.6438
▁力	-8.64384
▁27	-8.64475
集	-8.6463
▁復	-8.64968
▁採	-8.65044
▁空	-8.65194
▁c	-8.6526
▁過	-8.65584
▁評	-8.65704
帯	-8.65736
は	-8.663
止	-8.66455
▁大阪	-8.66967
▁タイ	-8.67029
プ	-8.67325
▁全国	-8.67645
▁城	-8.67678
村	-8.67836
▁右	-8.67949
▁業	-8.68032
▁通り	-8.6808
▁展	-8.68573
辺	-8.68657
件	-8.6883
▁様	-8.6901
響	-8.69275
▁音	-8.69488
▁28	-8.70022
▁丁	-8.70314
▁f	-8.70362
示	-8.70406
側	-8.7043
サー	-8.70437
▁属	-8.70632
▁問	-8.71509
▁光	-8.71738
▁規	-8.71767
営	-8.7206
▁単	-8.72082
▁領	-8.72185
▁続け	-8.722
▁一般	-8.72422
▁増	-8.72558
星	-8.7258
▁将	-8.72712
▁地方	-8.72807
▁影	-8.72931
▁半	-8.72939
親	-8.73091
決	-8.7312
験	-8.73157
▁推	-8.73258
▁左	-8.73451
▁準	-8.73491
▁着	-8.73684
設	-8.73725
▁来	-8.73966
東	-8.7398
▁なら	-8.74016
▁契	-8.74049
▁五	-8.74095
ター	-8.74353
▁和	-8.74448
▁オ	-8.74684
▁共和	-8.74716
▁知	-8.74744
▁愛	-8.74808
▁加	-8.74945
▁真	-8.75002
▁サッカー	-8.75358
▁住	-8.75729
▁に関	-8.76212
室	-8.76304
▁列	-8.76463
▁ほど	-8.76692
▁仕	-8.7677
▁母	-8.76946
▁最後	-8.77124
▁少	-8.77155
▁遺	-8.7725
水	-8.77417
料	-8.77607
▁29	-8.7761
▁美	-8.77862
屋	-8.78097
▁文化	-8.78572
▁リ	-8.78595
▁在	-8.78681
▁100	-8.78769
▁31	-8.78788
門	-8.78789
▁氏	-8.78923
認	-8.78972
▁いく	-8.79087
▁及び	-8.79361
影	-8.79654
y	-8.79833
号	-8.79907
▁史	-8.79986
▁党	-8.80269
教育	-8.80331
躍	-8.80444
▁秒	-8.80472
▁に対し	-8.80515
▁意	-8.80578
▁十	-8.80779
▁階	-8.80785
▁任	-8.80788
▁感	-8.81239
▁取	-8.81268
▁事務	-8.8138
▁病	-8.81463
▁花	-8.81662
▁姿	-8.81693
岸	-8.81724
終	-8.8195
都市	-8.82058
井	-8.82078
▁赤	-8.82135
織	-8.82279
市立	-8.82356
▁t	-8.82491
近	-8.82593
▁植	-8.82726
ション	-8.82783
導	-8.82809
▁四	-8.82828
▁cm	-8.82863
新	-8.82864
▁頭	-8.83205
▁カード	-8.83748
▁率	-8.8379
▁与え	-8.83798
▁〜	-8.83886
選	-8.8417
▁j	-8.84293
▁n	-8.84305
▁最高	-8.84846
▁師	-8.85079
▁最大	-8.85081
な	-8.85263
藤	-8.85373
金	-8.85523
事業	-8.85641
囲	-8.85975
013	-8.85981
▁風	-8.86179
▁情報	-8.86338
▁クラブ	-8.86575
▁一方	-8.86581
▁信	-8.8659
施設	-8.86604
▁兵	-8.8679
▁建設	-8.87085
谷	-8.87217
▁示	-8.882
▁起	-8.88224
官	-8.88253
▁なか	-8.88356
▁自由	-8.88357
▁帰	-8.88418
▁社会	-8.88652
葉	-8.88656
正	-8.88682
頭	-8.88732
▁調査	-8.88734
ック	-8.88754
▁命	-8.88782
▁ライブ	-8.88828
▁結婚	-8.8895
▁意味	-8.89196
▁商	-8.89239
▁細	-8.8927
▁にかけ	-8.89271
▁撮	-8.89307
有	-8.89334
▁転	-8.89369
▁私	-8.89468
海	-8.90009
編	-8.90098
▁メ	-8.90145
▁引	-8.9032
領	-8.90337
▁船	-8.90358
算	-8.90362
▁向け	-8.90459
主義	-8.9075
▁とも	-8.90763
調査	-8.90837
▁専	-8.90874
▁式	-8.90879
▁み	-8.90915
関	-8.91048
男	-8.91101
▁店	-8.91122
▁'	-8.91143
▁宮	-8.91194
量	-8.91285
▁松	-8.91317
▁装	-8.91382
▁入り	-8.91438
▁員	-8.9203
州	-8.92095
政治	-8.92129
▁2005	-8.92194
制	-8.92372
▁プロデュー	-8.92482
▁販売	-8.92597
▁酸	-8.93171
▁p	-8.93303
▁192	-8.93475
▁i	-8.93536
▁舞台	-8.93672
形	-8.9377
援	-8.93918
▁果たし	-8.9393
▁異な	-8.94259
▁毎	-8.94329
キャラクター	-8.94528
▁しま	-8.94543
詞	-8.94682
▁祭	-8.94703
▁低	-8.94873
▁太	-8.94939
張	-8.95061
▁青	-8.95094
▁夏	-8.95376
▁国勢	-8.95402
ろ	-8.95547
述	-8.95875
▁脚	-8.9605
文	-8.96096
▁博	-8.96105
▁首	-8.96176
▁ん	-8.96227
種	-8.96282
リー	-8.96336
▁被	-8.96503
▁定	-8.9688
▁民主	-8.96937
▁教会	-8.96976
▁グループ	-8.96998
▁国内	-8.97093
価	-8.97231
▁完	-8.97508
西	-8.97561
供	-8.97633
▁黒	-8.97635
▁決定	-8.97646
績	-8.97688
▁説	-8.97903
▁マイル	-8.98009
跡	-8.98097
▁製	-8.981
更	-8.98131
進	-8.9822
▁海軍	-8.98287
▁何	-8.98533
器	-8.9875
▁身	-8.98753
義	-8.98757
▁立	-8.98785
話	-8.98922
▁所在	-8.98948
センター	-8.98966
▁接	-8.99019
▁製造	-8.99049
▁親	-8.99067
字	-8.99085
職	-8.99445
▁彼女	-8.99858
a	-8.99934
際	-8.99939
論	-8.99944
▁聖	-8.99963
▁論	-9.00089
▁街	-9.00253
と	-9.00461
和	-9.00521
▁放	-9.00535
▁条	-9.00562
ド	-9.00734
▁悪	-9.01199
▁伴	-9.01208
典	-9.01208
▁成功	-9.0142
▁副	-9.01422
▁”	-9.01451
▁加え	-9.01488
光	-9.01616
住	-9.01637
▁ところ	-9.0171
▁そこ	-9.01765
▁50	-9.01898
▁株式	-9.02245
け	-9.02284
▁製作	-9.02626
イベント	-9.02784
▁あた	-9.03199
▁挙げ	-9.0334
闘	-9.03639
▁整	-9.03933
▁画	-9.03975
状	-9.04228
▁短	-9.04324
▁タイトル	-9.04346
▁起こ	-9.04438
▁>	-9.04663
主	-9.04829
▁気	-9.05402
橋	-9.05553
いった	-9.05635
▁データ	-9.05652
▁バンド	-9.05785
▁色	-9.05942
▁修	-9.05945
傷	-9.05974
▁俳優	-9.0614
▁敗	-9.06195
▁生活	-9.06203
映	-9.06268
型	-9.06272
▁末	-9.063
▁渡	-9.06392
▁映	-9.06474
▁良	-9.06534
▁サン	-9.0679
▁差	-9.06984
▁置	-9.0736
▁関	-9.07366
奏	-9.07578
案	-9.07733
▁除	-9.0808
▁図	-9.08179
▁終わ	-9.08188
▁ぶり	-9.0824
▁ジョン	-9.08434
▁40	-9.0857
▁標	-9.08589
▁運動	-9.08622
▁相手	-9.088
装	-9.08996
▁乗	-9.09013
揮	-9.09026
▁全日本	-9.09035
▁木	-9.09243
積	-9.09384
▁著	-9.09406
▁橋	-9.09463
▁酵	-9.09467
▁tv	-9.09511
▁for	-9.10207
▁砲	-9.10342
▁非	-9.1044
知	-9.10505
局	-9.10527
半	-9.10601
▁もと	-9.10608
▁違	-9.10608
▁h	-9.10654
ム	-9.10796
▁挑	-9.10799
▁宇宙	-9.10831
▁食	-9.10914
▁事故	-9.11111
票	-9.11397
▁順	-9.11419
▁路	-9.11626
築	-9.11693
限	-9.11723
スト	-9.11779
▁打	-9.11842
記念	-9.11894
▁自治	-9.11958
▁("	-9.12007
▁隊	-9.12085
▁モデル	-9.1222
材	-9.12226
落	-9.12295
▁述べ	-9.12301
▁認	-9.12495
由	-9.1255
▁戻	-9.12584
足	-9.1261
▁深	-9.12621
ランド	-9.12684
▁姓	-9.127
送	-9.12763
象	-9.12976
▁更	-9.13003
▁類	-9.13014
▁動	-9.13132
▁韓	-9.13212
▁すべ	-9.13214
企画	-9.13297
▁若	-9.13322
▁諸	-9.13378
▁モ	-9.13431
▁奪	-9.13453
▁管理	-9.13535
▁応	-9.13639
▁失	-9.1392
マン	-9.14077
▁防	-9.14098
識	-9.14132
沢	-9.14177
土	-9.14507
湾	-9.14526
▁捕	-9.14568
▁常	-9.14685
臣	-9.14751
技術	-9.14755
▁始ま	-9.14795
界	-9.15071
▁由	-9.15258
娘	-9.15373
▁沿	-9.157
▁森	-9.15859
▁敗れ	-9.16049
▁平方	-9.16068
▁馬	-9.16131
▁188	-9.16132
ラー	-9.16166
▁士	-9.16185
術	-9.16264
▁脱	-9.16292
▁マン	-9.16651
版	-9.16855
▁非常	-9.16965
兵	-9.17134
介	-9.17444
▁田	-9.17611
▁")	-9.17626
少	-9.17669
寺	-9.17778
▁清	-9.17891
平	-9.18075
▁負	-9.1815
断	-9.18452
夫	-9.18472
写真	-9.1855
▁異	-9.18607
▁ほと	-9.18625
▁ラジオ	-9.18712
重	-9.18884
▁バス	-9.18977
▁同時	-9.18995
盟	-9.19189
▁演じ	-9.19198
級	-9.19438
施	-9.19453
▁漫	-9.19549
▁運営	-9.19553
▁岩	-9.20078
▁br	-9.201
世	-9.20133
▁スポーツ	-9.20142
▁宣	-9.20241
想	-9.20294
▁遠	-9.20477
▁心	-9.20487
▁エ	-9.20618
元	-9.20743
園	-9.20813
ール	-9.20844
▁補	-9.20899
端	-9.20998
省	-9.21145
壊	-9.21221
んど	-9.21272
存	-9.2141
▁e	-9.21423
ぞ	-9.21442
▁v	-9.21506
▁背	-9.21547
向	-9.21614
▁豊	-9.21652
タ	-9.21668
▁京都	-9.21741
胞	-9.21816
▁企業	-9.21824
程	-9.21841
馬	-9.2188
マ	-9.21983
▁特徴	-9.22154
治	-9.22173
達	-9.22209
▁議	-9.22324
▁小さ	-9.22445
▁cd	-9.22449
▁報	-9.22467
▁土	-9.22575
▁)、	-9.22611
▁離	-9.2268
▁公園	-9.22686
▁ま	-9.22814
▁専門	-9.22867
▁速	-9.23035
輪	-9.23055
機	-9.23071
▁あ	-9.2311
シ	-9.23138
▁出来	-9.23251
▁朝	-9.23269
▁こ	-9.23274
献	-9.23403
▁ツアー	-9.23417
▁サイト	-9.23418
▁検	-9.23499
▁夫	-9.23569
▁超	-9.23833
▁ヨーロッパ	-9.23833
▁拠	-9.23984
ぐ	-9.24246
▁g	-9.24288
問	-9.24293
亡	-9.24331
▁システム	-9.24369
▁ザ	-9.24456
席	-9.24541
メント	-9.2459
徒	-9.24661
▁守	-9.24661
▁料	-9.24847
▁いっ	-9.24905
▁春	-9.24957
▁興	-9.25004
津	-9.25161
宮	-9.25195
▁職	-9.25265
▁レ	-9.25327
x	-9.25436
末	-9.25612
▁広島	-9.25668
せ	-9.25786
▁講	-9.25789
照	-9.25864
▁満	-9.2587
策	-9.25909
他	-9.26079
▁u	-9.26106
▁ペ	-9.2617
▁走	-9.26181
▁of	-9.26313
調	-9.26348
▁処	-9.26365
教	-9.2666
▁資	-9.26942
▁境	-9.27039
▁出し	-9.27126
▁x	-9.27153
▁好	-9.27207
▁北海道	-9.2729
▁継	-9.2729
▁対応	-9.27328
派	-9.27516
▁帝	-9.27614
▁院	-9.27677
走	-9.27857
候補	-9.27994
雄	-9.2815
▁消	-9.28178
米	-9.28233
▁テーマ	-9.28376
布	-9.28464
宿	-9.28476
▁課	-9.28484
▁アジア	-9.28529
取	-9.28637
ツ	-9.28683
▁湖	-9.28699
コ	-9.28767
▁週	-9.29032
▁旅	-9.29185
▁連合	-9.29204
▁l	-9.29316
▁勝ち	-9.29379
▁中継	-9.29423
▁注	-9.29531
▁流れ	-9.29568
結	-9.29634
▁ロシア	-9.29853
▁学園	-9.29886
板	-9.29926
京	-9.29948
模	-9.3004
居	-9.30055
▁福岡	-9.30139
▁絵	-9.30203
▁k	-9.30229
護	-9.30259
▁共同	-9.3051
▁圏	-9.30574
保	-9.30614
▁助	-9.3082
▁総合	-9.30909
が	-9.30956
▁ニュー	-9.30961
▁夜	-9.30975
▁190	-9.31082
郷	-9.31154
まっ	-9.31255
▁雑	-9.31348
▁降	-9.31467
▁殺	-9.31526
▁ファン	-9.3161
▁府	-9.31819
▁<	-9.31904
▁拡	-9.31969
▁急	-9.32021
▁休	-9.32178
ぼ	-9.32192
▁多数	-9.32252
▁呼	-9.32306
誌	-9.32315
▁革	-9.32319
▁航空	-9.32377
デザイン	-9.32705
▁認め	-9.32737
▁恋	-9.32799
難	-9.32841
▁志	-9.32877
▁mm	-9.32938
▁ワールド	-9.32978
▁適	-9.33082
判	-9.33311
与	-9.33682
音	-9.33854
念	-9.33898
▁ダイヤモンド	-9.34225
▁“	-9.3424
"	-9.34244
石	-9.34331
▁調	-9.34435
▁新し	-9.34452
▁トン	-9.34711
覧	-9.34863
▁大正	-9.34876
御	-9.34945
▁科学	-9.35088
▁地元	-9.35092
▁技	-9.35259
展	-9.35439
▁送	-9.35454
▁ベスト	-9.35565
▁文学	-9.35599
000	-9.35629
ボール	-9.35659
▁程	-9.3569
億	-9.35718
▁ヶ	-9.35995
▁効	-9.35998
▁べ	-9.36005
議会	-9.36025
▁昇	-9.36182
▁年度	-9.36238
▁佐	-9.36364
▁合わせ	-9.36473
▁維	-9.3648
▁たい	-9.3651
▁皇	-9.36629
之	-9.36708
▁r	-9.36804
城	-9.36955
▁証	-9.37069
▁かけ	-9.37088
▁動物	-9.37125
▁弾	-9.37201
▁量	-9.37234
▁アイドル	-9.37328
打	-9.37363
▁まま	-9.38403
▁向か	-9.38549
ただし	-9.3868
将	-9.3877
公	-9.38846
▁サ	-9.38903
▁ドル	-9.39021
▁輸	-9.39111
▁比較	-9.3922
▁室	-9.39261
帰	-9.3929
▁変化	-9.39318
実	-9.39387
復	-9.39449
自動車	-9.39518
▁持ち	-9.39584
況	-9.39617
▁江戸	-9.39627
▁救	-9.39658
▁交通	-9.3968
▁極	-9.39684
▁帝国	-9.39876
収	-9.40278
ボクシング	-9.40417
▁防衛	-9.40429
▁労働	-9.40446
▁パール	-9.40529
▁プレー	-9.40571
▁段	-9.40673
▁人間	-9.40801
デ	-9.40867
尾	-9.4092
リンピック	-9.41152
外国	-9.41275
▁自然	-9.4131
▁模	-9.41311
▁_	-9.41325
習	-9.41565
▁サービス	-9.4157
険	-9.41616
▁富士	-9.4165
▁予選	-9.41669
▁姉	-9.41779
過	-9.41925
けれ	-9.41949
査	-9.42
対	-9.4205
ナ	-9.42051
▁経済	-9.42209
ソン	-9.42226
▁治	-9.42318
▁妻	-9.42584
章	-9.42716
▁批	-9.4285
▁男子	-9.43119
▁ラン	-9.43337
測	-9.43545
ing	-9.43575
因	-9.43583
▁千	-9.43591
▁屋	-9.43656
▁藩	-9.43682
▁パ	-9.43813
▁能	-9.4389
▁早	-9.43918
店	-9.44048
▁nhk	-9.44089
▁紹	-9.44089
ートル	-9.44098
▁代わ	-9.44109
▁例	-9.44136
▁カナダ	-9.44576
▁カ	-9.4468
情	-9.44771
札	-9.44844
▁探	-9.4503
連	-9.45142
オ	-9.45279
▁物語	-9.4528
▁逆	-9.4534
ずれ	-9.45354
▁メキシコ	-9.45541
邦	-9.45551
学部	-9.45553
▁言わ	-9.45592
いは	-9.456
▁裏	-9.4585
▁アル	-9.45921
▁司	-9.45952
高速	-9.46065
▁幼	-9.4621
▁しか	-9.46221
両	-9.46224
南	-9.46287
▁港	-9.46398
▁国民	-9.46423
▁朝鮮	-9.46611
助	-9.46629
▁庁	-9.46638
▁強い	-9.46766
▁離れ	-9.46782
▁はじめ	-9.46789
爵	-9.4693
勢	-9.46951
▁巻	-9.46985
▁銀	-9.4704
▁関連	-9.4705
▁横	-9.47102
n	-9.47131
▁断	-9.47133
▁000	-9.47156
▁ハイ	-9.47185
こ	-9.47188
▁トップ	-9.47195
▁夢	-9.47225
カ	-9.47276
完全	-9.47426
▁営	-9.47432
▁児	-9.47475
▁ロンドン	-9.47537
▁幸	-9.4757
洋	-9.47658
▁す	-9.47732
▁足	-9.47759
▁操	-9.47831
▁永	-9.47922
▁求め	-9.47939
▁油	-9.48042
▁愛知	-9.4838
▁美術	-9.48444
▁189	-9.48521
よ	-9.48918
速	-9.48992
割	-9.49036
▁域	-9.49105
▁ブラジル	-9.49228
▁環境	-9.49229
タッグ	-9.49238
▁兼	-9.4926
岡	-9.4957
死	-9.49602
客	-9.49705
▁博物	-9.49731
▁山中	-9.49811
▁リン	-9.49824
▁称	-9.4998
▁オープン	-9.50078
▁搭	-9.50087
▁割	-9.50176
▁作用	-9.50214
美	-9.50413
息	-9.50629
▁決め	-9.50751
▁を通	-9.50838
佐	-9.50842
▁辞	-9.5087
▁187	-9.50907
▁子供	-9.5103
令	-9.51084
風	-9.5114
▁むら	-9.51327
▁迎え	-9.51432
火	-9.51496
▁ひ	-9.51515
▁思	-9.51653
▁農	-9.5172
堂	-9.51833
▁複数	-9.51894
▁ラ	-9.51899
町	-9.51987
▁字	-9.52004
刑	-9.52042
▁進学	-9.52104
▁江	-9.52293
▁居	-9.52297
▁ロック	-9.52307
きな	-9.52397
▁集め	-9.52458
興	-9.5246
池	-9.52471
放	-9.5248
ーゼ	-9.52617
▁ビル	-9.52685
▁扱	-9.52771
己	-9.52771
▁いわ	-9.52795
▁口	-9.52964
略	-9.52979
o	-9.53079
▁オリジナル	-9.53137
▁入れ	-9.53156
▁公立	-9.53212
▁こう	-9.53242
▁ここ	-9.53299
▁目指	-9.53301
▁視	-9.5334
us	-9.53369
▁節	-9.53379
ロ	-9.535
▁宗	-9.53538
▁唯	-9.53683
▁掲	-9.53685
▁45	-9.5374
角	-9.53835
応	-9.53848
▁族	-9.53886
▁そう	-9.54023
れぞ	-9.54121
貢	-9.54141
▁誌	-9.54165
薬	-9.54338
▁上げ	-9.54364
▁開業	-9.5445
▁貴	-9.54587
陸	-9.54599
mula	-9.54772
▁じ	-9.54862
全	-9.54935
▁ブラック	-9.5497
▁186	-9.5506
～	-9.55065
▁オランダ	-9.55065
▁土地	-9.55161
▁60	-9.55288
▁閉	-9.55424
ット	-9.55508
▁勢	-9.55511
▁減	-9.55523
▁普	-9.55526
▁すぐ	-9.5558
▁導	-9.55646
▁門	-9.55874
▁友	-9.55971
▁スペイン	-9.55998
▁イタリア	-9.56077
▁熱	-9.56092
待	-9.56227
▁付け	-9.56276
▁客	-9.56352
▁35	-9.56431
▁ペンシルベニア	-9.56476
▁見せ	-9.56506
▁品	-9.56514
殺	-9.56625
▁バレー	-9.56822
ちら	-9.56861
求	-9.56898
▁省	-9.5695
▁素	-9.57134
政	-9.57207
め	-9.57218
視	-9.57243
声	-9.57321
▁千葉	-9.57429
▁プレイ	-9.57467
▁林	-9.57488
▁レコード	-9.57523
鉄	-9.57632
▁積	-9.57749
らか	-9.57785
カップ	-9.57898
里	-9.58095
▁向	-9.58128
▁校	-9.582
フ	-9.5822
図	-9.58271
トン	-9.58299
▁八	-9.58334
▁端	-9.58374
換	-9.58414
▁どう	-9.58466
▁行政	-9.58498
罪	-9.58689
例	-9.58786
▁...	-9.58897
▁甲	-9.58988
▁許	-9.59061
▁尾	-9.59077
▁葉	-9.59142
▁超え	-9.59341
江	-9.59481
市	-9.59498
戸	-9.59642
資	-9.59755
報	-9.59764
歌	-9.59773
▁龍	-9.59857
▁孫	-9.60038
宅	-9.60066
▁ライン	-9.6009
王	-9.60291
▁既	-9.60304
▁dvd	-9.60305
▁隣	-9.60542
▁関わ	-9.60602
遣	-9.6074
▁オールバニ	-9.60795
▁銀河	-9.608
▁施	-9.60806
▁不明	-9.60899
▁依	-9.61062
▁似	-9.61173
楽	-9.61203
▁杉	-9.61265
台	-9.61277
滅	-9.61418
20	-9.61513
▁長野	-9.61515
▁プロレス	-9.61613
▁至	-9.61719
▁健	-9.61771
ニア	-9.61772
▁イメージ	-9.61792
▁スーパー	-9.61794
艦	-9.61837
▁審	-9.61881
▁オリンピ	-9.61969
▁好き	-9.62108
▁息	-9.62128
科	-9.6213
源	-9.6229
▁ニュージャージー	-9.62304
▁収め	-9.62365
ゴ	-9.62491
▁秋	-9.62597
シップ	-9.62616
▁ヒッ	-9.62624
▁スタジオ	-9.62698
▁主人	-9.62734
ゼ	-9.62776
▁くる	-9.62806
▁感じ	-9.63293
カー	-9.63363
▁到	-9.63474
▁シ	-9.63496
ク	-9.63532
北	-9.63657
▁藤	-9.63778
▁つつ	-9.63794
切	-9.63831
▁宇都宮	-9.64011
▁久	-9.64111
均	-9.64154
▁伝え	-9.64167
▁襲	-9.64245
▁ミュージック	-9.64323
虫	-9.64417
▁義	-9.64454
▁跡	-9.64519
キング	-9.64601
▁in	-9.64644
▁河	-9.64756
▁ミ	-9.64785
▁暗	-9.64814
▁吉	-9.64833
▁鳥	-9.64925
▁歩	-9.64944
▁ソ	-9.65038
散	-9.65066
▁率い	-9.65097
▁少年	-9.65157
空	-9.65234
▁延	-9.65243
▁源	-9.653
誉	-9.65318
▁グリーン	-9.65445
▁育	-9.65499
会長	-9.6561
▁管	-9.6565
▁仮	-9.65737
▁ダン	-9.65857
▁飛行	-9.65887
頼	-9.65904
望	-9.65915
▁血	-9.66215
え	-9.66332
乱	-9.66395
ダル	-9.66485
リング	-9.66766
律	-9.66835
齢	-9.66872
▁警察	-9.66885
食	-9.66982
▁陽	-9.67168
▁ます	-9.67251
▁停	-9.67397
チャート	-9.67477
▁jr	-9.67585
▁略	-9.67722
賀	-9.67753
なく	-9.6781
▁fc	-9.67836
▁李	-9.67922
船	-9.6795
▁巨	-9.67954
▁179	-9.67995
抗	-9.68121
ジ	-9.68155
▁医	-9.68213
▁骨	-9.68262
倉	-9.68328
▁帯	-9.68389
▁ユニット	-9.6856
▁含め	-9.68573
後半	-9.68588
ノ	-9.68721
▁坂	-9.68892
▁百	-9.68999
▁ジョージ	-9.69004
▁裁判	-9.69083
伝	-9.69096
▁プロジェクト	-9.69155
及	-9.69199
標	-9.69242
▁ローマ	-9.69471
▁レベル	-9.69643
相	-9.6979
▁京	-9.69806
▁地下	-9.69928
▁樹	-9.69937
▁授	-9.69962
▁パリ	-9.69965
ガル	-9.69968
議院	-9.70008
アーティスト	-9.70063
▁里	-9.70171
▁項	-9.70182
タウン	-9.70216
▁七	-9.70248
▁寺	-9.70255
幹	-9.70259
▁36	-9.70261
▁枠	-9.70397
高	-9.70413
▁ち	-9.70442
ナー	-9.70456
▁ちゃん	-9.70695
覚	-9.70814
▁果た	-9.71063
▁侵	-9.7114
▁住宅	-9.71158
▁ご	-9.71161
閣	-9.71196
▁紙	-9.71364
▁界	-9.71564
▁招	-9.71642
良	-9.71691
▁触	-9.71696
▁戸	-9.71756
チン	-9.71796
▁丸	-9.71864
▁六	-9.71947
付	-9.72072
レース	-9.72092
▁ゲスト	-9.72283
▁温泉	-9.72348
▁col	-9.72398
束	-9.7241
▁コ	-9.72426
▁大学院	-9.72514
系	-9.72617
ヤ	-9.72726
▁憲	-9.72736
▁購	-9.72788
▁作業	-9.72822
▁つけ	-9.72887
▁()	-9.73018
味	-9.7304
察	-9.73193
▁距	-9.73207
▁しよ	-9.73323
▁ごと	-9.73641
▁冬	-9.73657
▁誕	-9.73759
▁犯	-9.73826
▁軽	-9.73898
▁隻	-9.73902
▁and	-9.73935
▁ノ	-9.73974
pan	-9.7401
▁ダンス	-9.74012
浦	-9.7414
▁国立	-9.74179
▁密	-9.74255
▁いい	-9.74287
景	-9.74293
白	-9.74294
練	-9.74302
er	-9.74351
▁突	-9.74422
▁芸能	-9.74502
童	-9.74543
三	-9.74817
▁ド	-9.74824
▁z	-9.74923
al	-9.74924
先	-9.74924
接	-9.74935
覇	-9.75007
リオ	-9.7519
▁器	-9.75232
産業	-9.75344
▁メディア	-9.75438
▁フリー	-9.75509
よく	-9.75529
廃止	-9.75532
▁スター	-9.75854
値	-9.76058
工業	-9.76059
▁48	-9.76095
▁インド	-9.76126
▁名古屋	-9.76139
ngc	-9.76191
▁見え	-9.76204
引	-9.76477
▁羽	-9.76594
▁福	-9.76736
▁視聴	-9.76744
▁爆	-9.76805
▁途	-9.76807
▁巡	-9.76882
還	-9.7704
自	-9.77171
▁質	-9.77225
▁もし	-9.77234
捕	-9.77272
▁支配	-9.77336
▁コン	-9.77402
i	-9.77586
▁顔	-9.77667
筆	-9.77735
▁ね	-9.7775
刊	-9.77813
秀	-9.77838
ザ	-9.77893
▁刑務	-9.77923
c	-9.77954
兄弟	-9.78008
▁敵	-9.78067
▁宿	-9.78148
▁組合	-9.78194
▁刑	-9.78241
庁	-9.78299
▁きっか	-9.78483
▁哲	-9.78515
▁試験	-9.78606
▁条件	-9.78623
▁新聞	-9.787
▁鉄	-9.78722
▁もう	-9.78961
波	-9.79006
▁にあた	-9.79313
▁読	-9.79397
▁基づ	-9.79473
▁32	-9.7961
帝	-9.79622
▁精神	-9.79671
▁失敗	-9.79675
▁kg	-9.79684
▁角	-9.79919
bc	-9.79964
▁体育	-9.80012
▁飛	-9.80017
▁ドロ	-9.80024
▁抗	-9.80039
▁バ	-9.80153
▁落	-9.8018
▁方向	-9.80325
化学	-9.80333
坂	-9.80496
▁+	-9.80598
▁やす	-9.80798
▁ブル	-9.80811
工	-9.80834
▁埼玉	-9.80962
電	-9.8101
▁産	-9.81025
▁マーク	-9.81028
▁芸術	-9.81045
▁温	-9.81072
▁太平洋	-9.81135
▁進め	-9.81174
▁郎	-9.81251
▁層	-9.81317
▁縁	-9.81385
製	-9.8145
※	-9.81464
▁赤羽	-9.81468
▁ライト	-9.81473
▁慶	-9.81477
▁図書	-9.81548
▁設け	-9.81938
▁混	-9.82065
劇	-9.82128
規	-9.82166
蔵	-9.82191
▁ウィリアム	-9.82338
ぎ	-9.82524
▁一時	-9.82528
座	-9.82541
▁比	-9.82613
▁70	-9.82641
▁兵庫	-9.82685
▁因	-9.82724
▁緑	-9.82763
▁ユ	-9.82821
じて	-9.82833
▁介	-9.82943
▁カップ	-9.82946
ランク	-9.82951
▁デ	-9.82972
まま	-9.83003
▁丘	-9.83136
▁ダウン	-9.83198
▁イン	-9.8328
▁麻	-9.83331
▁漢	-9.83379
▁盛	-9.83403
▁禁	-9.83413
▁値	-9.83436
ップ	-9.8345
サウルス	-9.83469
d	-9.83477
▁ルー	-9.83667
▁地球	-9.83715
▁球	-9.83755
▁33	-9.83918
▁定義	-9.83941
活	-9.83947
養	-9.84033
樹	-9.84047
除	-9.84059
▁ソフト	-9.84116
▁刺	-9.8425
▁複	-9.84351
給	-9.84417
▁造	-9.84443
▁合併	-9.84532
▁九州	-9.84588
攻	-9.84637
▁シード	-9.8465
▁射	-9.84679
層	-9.84683
効	-9.84699
管	-9.84701
▁没	-9.8484
▁兄	-9.84868
▁範	-9.84921
シーン	-9.85047
▁つく	-9.85092
▁寄	-9.85093
▁立ち	-9.85245
▁医学	-9.85295
▁ポジ	-9.85303
服	-9.85308
▁費	-9.85489
▁ポイント	-9.85575
▁湾	-9.85612
▁負け	-9.85684
▁180	-9.85719
西部	-9.85803
▁38	-9.85816
▁変え	-9.85822
▁剣	-9.85835
▁メイン	-9.85835
▁グランド	-9.85856
▁火	-9.85883
▁ジム	-9.86071
▁有名	-9.86077
t	-9.86117
▁井	-9.8617
▁振	-9.86363
衛	-9.86384
▁倍	-9.86419
▁あまり	-9.8646
承	-9.86629
▁駆	-9.86631
▁山口	-9.86713
▁便	-9.86834
▁80	-9.86924
▁ブ	-9.86998
▁500	-9.87033
☆	-9.87055
▁"|-||	-9.87057
エンジン	-9.87079
▁イ	-9.87108
▁練	-9.87233
▁th	-9.87258
▁漁	-9.87259
▁弟	-9.87271
密	-9.87293
▁広が	-9.87308
▁乱	-9.87473
持ち	-9.87545
▁徳	-9.87555
▁闘	-9.87626
災	-9.87701
▁容	-9.87765
▁御	-9.87786
▁300	-9.87879
▁建て	-9.87905
▁農業	-9.87919
幕	-9.87943
▁q	-9.87945
▁タウン	-9.87969
率	-9.87994
▁築	-9.88158
▁養	-9.88205
▁洋	-9.88268
▁177	-9.88271
摘	-9.88342
杯	-9.88342
衆議院	-9.88382
▁ひとつ	-9.88396
▁マ	-9.88411
▁臨	-9.88428
▁故	-9.88475
▁スタッフ	-9.8849
▁de	-9.88529
▁ポルト	-9.88568
▁塩	-9.88584
諸	-9.88639
▁承	-9.88776
▁詩	-9.88864
▁え	-9.88978
▁°	-9.88991
▁例え	-9.89002
▁本塁	-9.89025
▁レギュラー	-9.89047
▁難	-9.89115
りつ	-9.89122
婚	-9.89131
▁フジテレビ	-9.89152
解	-9.89211
▁波	-9.89249
司	-9.89256
▁片	-9.89292
(	-9.89383
▁草	-9.89462
▁固	-9.89534
ダ	-9.8963
▁くれ	-9.89695
▁中華	-9.89701
瀬	-9.89701
▁思い	-9.89775
次	-9.89849
善	-9.89924
▁騎	-9.90003
▁為	-9.90011
▁貫	-9.90064
▁墳	-9.90078
ーム	-9.90185
河	-9.90204
そ	-9.90283
▁執	-9.90316
▁財	-9.90339
▁リーダー	-9.90399
▁郷	-9.90442
留	-9.90472
▁ショー	-9.90518
▁案	-9.90597
▁披露	-9.90614
▁ヒ	-9.90745
▁谷	-9.90842
柄	-9.90965
▁girls	-9.90971
▁訪れ	-9.90987
▁司令	-9.90988
▁暴	-9.91111
▁中村	-9.91173
▁双	-9.91195
▁危	-9.91224
▁空港	-9.91228
▁up	-9.91266
強	-9.91286
▁作り	-9.91287
から	-9.91351
▁現れ	-9.91383
柔道	-9.91438
▁孝	-9.91501
都	-9.91528
▁竜	-9.91565
▁返	-9.91596
▁神戸	-9.91627
▁取締	-9.91631
▁37	-9.91677
▁廃	-9.91679
▁インター	-9.91704
▁アン	-9.91705
▁クラス	-9.91866
請	-9.91885
▁にわた	-9.92013
紙	-9.92025
▁ジュニア	-9.92096
▁令	-9.92108
▁南西	-9.92506
▁訓	-9.9262
香	-9.9268
グ	-9.92686
骨	-9.92724
▁通信	-9.92797
バ	-9.92833
▁勤	-9.92865
▁排	-9.92978
析	-9.92978
▁to	-9.92999
▁午	-9.93133
▁切り	-9.93235
▁飾	-9.93411
▁封	-9.93419
▁症	-9.9347
▁墓	-9.93482
▁ロード	-9.93635
▁欠	-9.9365
▁札幌	-9.93659
▁アナウン	-9.93659
ブ	-9.93723
ブル	-9.93725
▁コンサート	-9.93815
▁尚	-9.93835
▁ビデオ	-9.93844
震	-9.93918
▁ブランド	-9.93962
▁伊	-9.94114
季	-9.94154
▁恒	-9.94376
▁河川	-9.94405
リア	-9.94436
メ	-9.94561
▁わ	-9.94681
▁183	-9.94745
突	-9.94745
商業	-9.94781
急	-9.94786
▁芸	-9.94825
交	-9.94829
▁占	-9.94989
虜	-9.94996
▁直接	-9.95065
▁横浜	-9.95069
▁君	-9.95212
写	-9.95491
▁43	-9.95513
▁竹	-9.95691
▁ロサンゼルス	-9.95728
▁撤	-9.95728
▁つい	-9.95806
▁傾	-9.95832
▁ちょう	-9.95852
保存	-9.95982
▁カバー	-9.96071
▁おお	-9.96155
射	-9.96249
極	-9.96277
▁録	-9.96398
▁沖縄	-9.96427
▁デラウェア	-9.9646
▁41	-9.96461
▁リング	-9.96515
キ	-9.96604
却	-9.96704
▁怪	-9.9672
▁ステージ	-9.96736
底	-9.96897
▁軌道	-9.9715
▁秀	-9.97175
ソウル	-9.97227
ケ	-9.97244
▁思わ	-9.97256
▁少なく	-9.97292
起	-9.97393
多	-9.97598
▁沈	-9.97637
然	-9.97698
▁亜	-9.97788
▁ストーリー	-9.97791
▁まだ	-9.97978
神	-9.98254
福	-9.98353
血	-9.98364
核	-9.98439
唱	-9.98554
▁地上	-9.98581
▁カリフォルニア	-9.98589
医療	-9.98719
▁出会	-9.98725
▁衝	-9.98837
ストン	-9.9884
イ	-9.9888
▁価	-9.99046
具	-9.99162
逮	-9.99274
▁損	-9.99276
▁上が	-9.99373
▁さん	-9.9956
▁紅	-9.9957
▁薬	-9.99579
▁ko	-9.99583
▁根	-9.99592
▁裕	-9.99919
康	-9.99922
古	-9.99932
可	-9.99944
▁牧	-9.99945
▁買	-10.001
▁板	-10.0025
リ	-10.0038
▁堂	-10.0043
▁争	-10.0054
番	-10.0058
圧	-10.0068
考	-10.0068
▁さら	-10.0072
殊	-10.0073
▁42	-10.0088
塚	-10.0105
媒	-10.0109
▁フィー	-10.0112
▁困	-10.0114
澤	-10.0114
ガ	-10.0118
▁本田	-10.0121
▁魚	-10.0129
▁フル	-10.0131
抜	-10.0133
翼	-10.0139
児	-10.014
▁食べ	-10.0147
構	-10.0147
▁インターネット	-10.015
▁仮面	-10.0151
▁並	-10.0152
▁延長	-10.0156
▁ゆ	-10.0161
細	-10.0165
▁景	-10.0169
レス	-10.019
安	-10.0204
▁仁	-10.021
▁o	-10.0215
温	-10.0217
修	-10.0222
▁包	-10.0233
吉	-10.0243
本人	-10.0247
則	-10.0266
友	-10.0278
▁働	-10.0286
▁魔	-10.0294
▁刈谷	-10.0295
▁比べ	-10.0297
▁即	-10.0299
週	-10.0299
脱	-10.03
▁分解	-10.0304
▁ワシントン	-10.0305
▁陣	-10.0313
▁園	-10.0314
▁メーカー	-10.0322
▁幕	-10.034
▁津	-10.0344
▁雪	-10.0349
▁ベ	-10.0351
掘	-10.0359
▁匹	-10.037
▁手がけ	-10.0373
▁ホーム	-10.0375
▁オーストラリア	-10.0376
▁報道	-10.0377
▁題	-10.0391
ゆる	-10.0393
▁航	-10.0393
▁浅	-10.0399
▁砂	-10.0424
緒	-10.0439
▁銃	-10.0443
▁仙台	-10.0446
太郎	-10.0455
なり	-10.0464
▁章	-10.0471
▁178	-10.0479
▁00	-10.049
▁文字	-10.0501
▁逃	-10.0502
県立	-10.0508
▁ロス	-10.0513
▁ホール	-10.052
▁神奈川	-10.052
母	-10.0533
評	-10.0535
▁キング	-10.055
ko	-10.0553
▁ソロ	-10.0556
▁行く	-10.0556
▁腕	-10.0559
▁チ	-10.0569
▁詳	-10.0575
▁47	-10.0576
▁富	-10.0583
ダー	-10.0598
)	-10.0599
▁残り	-10.06
▁キャリア	-10.0601
▁荒川	-10.0602
▁生じ	-10.0603
確	-10.0606
▁刊	-10.0609
▁ころ	-10.0612
▁切	-10.062
▁忠	-10.0649
13	-10.0653
デン	-10.0655
▁39	-10.0669
▁選択	-10.0679
▁フィラデルフィア	-10.0683
▁伯	-10.0685
雲	-10.0689
▁弱	-10.0695
▁ホ	-10.0699
▁191	-10.0712
▁純	-10.0733
▁喜	-10.0749
▁55	-10.0762
▁事実	-10.0763
妹	-10.0769
ライダー	-10.0791
リン	-10.0793
▁取っ	-10.0797
互	-10.0808
放送	-10.0809
▁幅	-10.0809
▁稲	-10.0812
▁激し	-10.082
▁!」	-10.0823
▁バック	-10.0825
▁宣教	-10.0836
▁寛	-10.0842
久	-10.0845
丘	-10.0845
育	-10.0848
▁パートナー	-10.0852
▁ゴールド	-10.0853
費	-10.0854
弾	-10.0855
ヶ	-10.0856
独	-10.0857
▁崩	-10.0866
▁54	-10.0867
▁顧	-10.0871
小	-10.0905
▁動き	-10.0908
▁誰	-10.0913
タレント	-10.0915
スタイル	-10.0922
▁1974	-10.0925
▁銅	-10.0926
▁散	-10.093
▁鎮	-10.093
▁長崎	-10.0939
レー	-10.0944
▁ハート	-10.0944
▁バージョン	-10.0948
▁ハ	-10.0955
▁ボール	-10.0964
▁茂	-10.0965
僚	-10.0993
▁尖閣	-10.0993
▁スタート	-10.0994
舎	-10.0994
▁徐	-10.0994
▁奇	-10.0999
▁洛	-10.0999
等	-10.0999
▁名付け	-10.1
▁絶	-10.1008
歩	-10.1015
幅	-10.1016
▁コメディ	-10.1019
▁備え	-10.1024
▁400	-10.1027
くは	-10.1036
▁いち	-10.1036
▁余	-10.1041
▁1000	-10.1052
▁件	-10.1064
▁遊	-10.1066
▁阿	-10.1066
▁黄	-10.1074
▁標準	-10.1075
▁任じ	-10.1075
▁旗	-10.1078
▁奈良	-10.1078
▁y	-10.1079
段	-10.1083
▁タ	-10.1095
拓	-10.1099
病	-10.1104
▁電気	-10.1113
、	-10.1124
C	-10.1155
剰	-10.1155
泊	-10.1156
▁モンスター	-10.1161
es	-10.1162
▁185	-10.1168
▁鈴	-10.1171
陽	-10.1174
▁激	-10.1178
▁皮	-10.1181
▁サト	-10.1189
▁love	-10.1194
▁ガス	-10.1195
▁市場	-10.1202
かり	-10.1204
▁クロ	-10.1213
▁岡	-10.1218
▁太郎	-10.1236
▁メジャー	-10.1237
▁オンタ	-10.1245
▁山形	-10.1249
差	-10.1253
ゲーム	-10.1258
▁叙	-10.1263
房	-10.1263
▁東北	-10.1268
額	-10.127
襲	-10.1272
階	-10.1273
▁奥	-10.1274
▁tb	-10.128
▁カー	-10.1282
▁華	-10.1284
スター	-10.1285
▁額	-10.1286
ワ	-10.1296
▁礼	-10.1303
尉	-10.132
▁イングランド	-10.132
▁太陽	-10.1321
根	-10.1339
▁誤	-10.1344
▁祖	-10.1345
為	-10.1356
▁生き	-10.1366
▁セント	-10.1375
m	-10.1376
▁署	-10.1399
▁ニュース	-10.14
渉	-10.1403
トーナ	-10.1406
▁概	-10.1407
▁考	-10.1407
獄	-10.1407
▁終え	-10.1407
▁リード	-10.1417
▁桜	-10.1418
▁起き	-10.1418
二	-10.1429
植	-10.1437
募	-10.1439
訳	-10.144
▁侍	-10.1442
証	-10.1444
▁!』	-10.1474
遇	-10.1487
▁岡崎	-10.1489
▁市街	-10.149
▁行き	-10.1493
▁52	-10.1502
▁オーディション	-10.1504
志	-10.1515
▁冠	-10.1525
征	-10.1526
携	-10.1527
没	-10.153
▁欧	-10.1542
▁湯	-10.1546
▁ランド	-10.1551
▁浜	-10.1561
ピン	-10.1571
▁サポート	-10.1573
▁占め	-10.1581
▁核	-10.1586
朝	-10.1602
▁香	-10.1605
▁wb	-10.1612
▁東洋	-10.1614
アップ	-10.1615
孫	-10.1618
舗	-10.1621
▁ぼ	-10.1624
▁ワン	-10.1627
▁ウイル	-10.1642
▁カメラ	-10.1652
▁最低	-10.1657
インタビュー	-10.166
▁ユーザー	-10.1664
ase	-10.1682
▁タイム	-10.1685
▁アップ	-10.1693
スキー	-10.1697
-	-10.1699
彦	-10.1699
液	-10.1701
▁及	-10.1702
▁前年	-10.1703
春	-10.1703
▁使い	-10.1709
ネ	-10.1716
▁ガ	-10.1727
▁?	-10.1728
▁関東	-10.1729
▁ポ	-10.1743
')	-10.1745
▁圧	-10.1749
泉	-10.1755
▁倒	-10.177
▁付き	-10.1773
▁責	-10.1778
nwa	-10.178
▁アカデミー	-10.1782
▁57	-10.1793
障	-10.1794
▁取り	-10.1799
▁フォン	-10.1802
▁取り組	-10.1806
▁貨	-10.1813
r	-10.1814
▁分け	-10.1827
▁岐阜	-10.183
▁インチ	-10.1832
▁ジャパン	-10.1832
▁趣	-10.1834
▁仲間	-10.1837
▁殿	-10.1849
サ	-10.185
▁障	-10.1867
ニー	-10.1869
▁ストーン	-10.1875
山本	-10.1876
▁フライ	-10.1878
▁仏	-10.1884
敗	-10.1886
▁覆	-10.189
▁wak	-10.1902
▁セ	-10.1909
▁変わ	-10.1913
▁ドラ	-10.1913
▁滋賀	-10.1918
▁四天王	-10.1918
バレエ	-10.1919
▁命じ	-10.1919
▁新潟	-10.192
▁サー	-10.1923
▁加わ	-10.1932
▁定め	-10.1934
▁抜	-10.1947
松	-10.1954
節	-10.1963
愛	-10.1974
失	-10.1975
▁服	-10.1978
▁併	-10.2006
▁増え	-10.2009
▁享	-10.201
▁シルバー	-10.2014
▁衣	-10.2018
▁やや	-10.2019
▁レーベル	-10.2043
航	-10.2067
準	-10.2069
▁トリック	-10.2094
願	-10.2095
▁スウェーデン	-10.2096
▁遭	-10.2096
▁顕	-10.2097
ウス	-10.2103
▁エネルギー	-10.2119
▁re	-10.2122
鎖	-10.2151
▁精	-10.2158
刻	-10.2158
▁ピ	-10.2163
▁捜	-10.2174
チーフ	-10.2177
▁東日本	-10.2187
▁アマチュア	-10.2188
▁隆	-10.2192
▁老	-10.2193
▁南北	-10.2195
lase	-10.2201
▁札	-10.2203
▁ゴール	-10.2218
モリ	-10.2233
▁リー	-10.2236
林	-10.2245
▁投げ	-10.2246
▁雄	-10.2247
検	-10.2255
▁アフリカ	-10.2259
▁俊	-10.2262
▁×	-10.2276
▁装甲	-10.2277
▁東亜	-10.2278
▁壁	-10.2279
▁執行	-10.2285
▁康	-10.2286
▁仲	-10.2287
▁ギター	-10.2288
▁聴	-10.2289
▁読み	-10.2305
▁ベース	-10.2306
▁バトル	-10.2313
▁ロー	-10.2324
かし	-10.2337
▁キー	-10.2349
▁係	-10.237
▁クリ	-10.2371
▁レコーディング	-10.2373
▁東映	-10.238
▁泰	-10.2384
▁こうし	-10.2388
▁オデヲン	-10.239
▁go	-10.2397
伏	-10.2404
▁ミニ	-10.2406
療	-10.2416
索	-10.2416
▁バン	-10.2428
▁アイ	-10.2446
▁衛星	-10.2462
▁阻	-10.2466
▁ピアノ	-10.2466
▁熊本	-10.2469
▁氷	-10.2479
レ	-10.2479
父	-10.2496
▁簡	-10.2499
▁昌	-10.2505
もと	-10.2507
▁姫	-10.2511
▁34	-10.2516
ed	-10.2529
▁パン	-10.2531
▁st	-10.2539
お	-10.2542
共和	-10.2549
▁スマート	-10.2554
生物	-10.2555
▁拒	-10.2555
▁転じ	-10.2556
▁越え	-10.2565
衛門	-10.2574
レンズ	-10.2578
▁キロ	-10.259
▁サウンド	-10.2597
ヌ	-10.2602
▁池	-10.2603
▁カール	-10.2616
▁シティ	-10.2617
▁なさ	-10.2621
染	-10.2623
陵	-10.2628
酸	-10.2632
破	-10.2635
▁スモレンスク	-10.2649
▁応じ	-10.265
▁レイ	-10.265
おり	-10.265
▁live	-10.2651
▁明石	-10.2654
▁かも	-10.2654
▁わず	-10.2666
レット	-10.2678
▁測	-10.2679
▁嘉	-10.2679
▁少な	-10.2681
▁90	-10.2688
▁レッド	-10.2692
ラン	-10.2702
▁譲	-10.2704
▁ドン	-10.2706
▁試み	-10.2718
沼	-10.2726
夜	-10.2731
▁否	-10.2731
財	-10.2734
▁ほう	-10.2737
ティ	-10.2744
▁兼ね	-10.2746
▁往	-10.2749
,	-10.2754
f	-10.2759
▁立て	-10.2765
▁ロ	-10.2777
ガン	-10.2778
易	-10.2793
チ	-10.2793
▁62	-10.2804
▁疑	-10.2804
バー	-10.2806
▁芝	-10.2816
葬	-10.2825
似	-10.2833
移	-10.2836
塞	-10.2839
礎	-10.284
▁幹部	-10.2845
▁穴	-10.2845
▁喫	-10.2848
▁ヤマト	-10.2849
▁福島	-10.2851
▁警	-10.2852
▁しばし	-10.2854
▁モンゴメリー	-10.2857
クラブ	-10.2865
▁吸	-10.2865
▁話し	-10.2874
▁トラック	-10.2885
謀	-10.2889
▁ソング	-10.2899
守	-10.2906
▁46	-10.2911
▁ii	-10.2915
▁宝	-10.2918
▁豪	-10.2926
穴	-10.2933
▁ラテン	-10.2938
▁関西	-10.2942
▁さま	-10.2943
▁ハー	-10.2944
▁接続	-10.2947
▁雨	-10.295
▁暮ら	-10.2951
▁牛	-10.296
▁刻	-10.296
▁酒	-10.2968
▁44	-10.2969
▁静岡	-10.2971
▁スキー	-10.2991
▁ポール	-10.3002
▁秘	-10.3004
▁弘	-10.3007
▁らし	-10.3007
裁	-10.3009
▁滞	-10.301
ルゼン	-10.3014
▁ネット	-10.3028
▁申	-10.303
好	-10.3031
鎧	-10.3035
▁オリコン	-10.3036
ジアゼ	-10.3036
▁必ず	-10.3037
▁加藤	-10.3043
ロット	-10.3046
▁今日	-10.3055
▁もら	-10.3064
▁主題	-10.3089
▁かな	-10.3096
▁告	-10.312
▁決ま	-10.3132
▁岸	-10.3134
▁過ご	-10.3134
▁窓	-10.3136
▁保守	-10.3137
▁すぎ	-10.3138
革	-10.3139
▁智	-10.3148
▁言い	-10.315
アニメーション	-10.3154
▁コード	-10.3162
▁陥	-10.3168
▁ダ	-10.3169
ミ	-10.3171
▁フィゲロア	-10.3175
▁弁	-10.3181
▁苦	-10.3183
▁我	-10.3211
リーグ	-10.3213
プト	-10.3216
▁肉	-10.322
▁プラ	-10.3223
▁だい	-10.3224
ンディング	-10.3224
▁席	-10.3227
拠	-10.3231
▁you	-10.3234
卿	-10.3235
▁幅広	-10.3235
ラス	-10.3237
▁あと	-10.3241
▁58	-10.3241
首	-10.3242
ホール	-10.3246
▁空気	-10.3247
▁駐	-10.3251
▁まず	-10.3262
バーグ	-10.327
▁自動	-10.3279
▁泉	-10.328
▁毛	-10.328
ペア	-10.3284
▁la	-10.3292
ネル	-10.3292
▁繁	-10.3292
ート	-10.3301
思	-10.3306
▁ビ	-10.3309
▁49	-10.3312
▁功	-10.3325
輩	-10.3327
▁玉	-10.3331
▁ヘビー	-10.3333
慮	-10.3336
旬	-10.3336
▁オーストリア	-10.3336
▁香港	-10.3336
▁コウ	-10.3337
▁胸	-10.3337
針	-10.3338
▁家庭	-10.3338
▁184	-10.3338
▁〜』	-10.3338
▁藤原	-10.3341
惑	-10.3341
▁フィールド	-10.3341
en	-10.3342
▁輪	-10.3343
勤	-10.3345
変	-10.3345
異	-10.3349
テニス	-10.3349
▁鮮	-10.3359
ーズ	-10.3361
▁コーナー	-10.3367
▁150	-10.3379
すな	-10.3395
▁鬼	-10.3405
▁人民	-10.341
▁コース	-10.3426
▁コーチ	-10.343
▁ただ	-10.3437
釈	-10.3437
逐	-10.3438
魏	-10.3438
▁早稲田	-10.3438
▁ブログ	-10.3447
花	-10.3449
ファイル	-10.345
右	-10.3452
▁九	-10.3453
ゲート	-10.3453
▁なし	-10.3459
▁グランプリ	-10.3467
▁卵	-10.3468
▁寝	-10.3484
18	-10.3484
タイ	-10.3489
▁ホテル	-10.3508
▁敷	-10.3517
▁飼	-10.3529
–	-10.3541
▁airbnb	-10.3541
▁ビッグ	-10.3542
▁天然	-10.3543
▁平安	-10.3545
討	-10.3549
▁ホワイト	-10.3552
否	-10.3555
▁一番	-10.356
▁ジャ	-10.3574
▁日本テレビ	-10.3586
▁共産	-10.3591
▁65	-10.3613
太	-10.3614
▁わか	-10.3616
稿	-10.3618
▁税	-10.3621
▁聞	-10.3622
▁me	-10.3625
オブ	-10.3626
折	-10.363
15	-10.3632
▁ノー	-10.3638
▁ベンゾ	-10.3643
▁ボクサー	-10.3645
クラシック	-10.3645
▁エジ	-10.3646
▁手掛け	-10.3647
▁かい	-10.3656
じ	-10.3657
避	-10.3659
わち	-10.3676
▁56	-10.3677
in	-10.3678
ビア	-10.3682
▁露	-10.3685
▁53	-10.3689
▁フ	-10.369
▁軌	-10.3692
on	-10.3697
▁マッチ	-10.3707
▁ベリー	-10.372
メダ	-10.3722
▁ふ	-10.3738
径	-10.3738
▁楽し	-10.3742
▁わけ	-10.3746
▁青森	-10.3751
▁緊	-10.3752
談	-10.3756
▁ダブルス	-10.3757
▁エピソード	-10.3758
益	-10.3758
連絡	-10.3762
▁注意	-10.3764
▁web	-10.3765
▁ょうがっこう	-10.3768
▁習	-10.3768
▁あれ	-10.3768
▁落ち	-10.3768
配	-10.377
礼	-10.3772
感	-10.3774
やか	-10.3785
▁チャンネル	-10.3787
▁侯	-10.379
▁スペース	-10.3795
▁熊	-10.3799
▁奉	-10.3816
ざま	-10.3822
越	-10.3826
ベル	-10.3836
▁いき	-10.3841
▁大陸	-10.3844
イン	-10.3851
▁ノルウェ	-10.3856
▁興味	-10.3859
▁不可	-10.386
▁山梨	-10.3865
モ	-10.3867
泳	-10.3872
▁コミュー	-10.3873
▁ざ	-10.3875
▁亡くな	-10.3875
シー	-10.3875
我	-10.388
距	-10.3883
観	-10.3883
▁輝	-10.3887
p	-10.3907
▁洗	-10.3924
▁振り	-10.393
▁書き	-10.3935
▁)。	-10.3954
▁沖	-10.3955
人民	-10.3959
▁取り入れ	-10.3964
▁希望	-10.3964
▁カトリック	-10.3966
▁パッ	-10.3979
▁ファッション	-10.3979
▁雅	-10.3979
▁スペシャル	-10.3982
棄	-10.3987
モデル	-10.3988
草	-10.3991
症	-10.3993
▁迫	-10.4003
▁天皇	-10.4004
▁済	-10.4006
▁布	-10.403
▁夕	-10.4033
▁拓	-10.4038
▁ク	-10.4046
▁プロダクション	-10.4058
ズム	-10.4064
候	-10.4065
致	-10.4065
穆	-10.4073
▁留学	-10.4074
▁ブルターニュ	-10.4078
▁→	-10.4078
▁ロケット	-10.4081
▁毎日	-10.409
敷	-10.4099
疑	-10.4105
▁ジャン	-10.4105
▁携	-10.4108
クス	-10.4109
▁中野	-10.4116
実業	-10.4131
▁訳	-10.4134
▁株	-10.4137
テ	-10.4138
▁行な	-10.414
▁組み	-10.4145
▁長期	-10.4158
▁国会	-10.4164
同	-10.4174
▁ノミネー	-10.4184
▁ジェームズ	-10.4188
▁パーソナリティ	-10.4188
▁羅	-10.4188
▁japan	-10.4191
▁エル	-10.4192
県	-10.4201
中学	-10.4202
謝	-10.4217
鑑	-10.4217
▁インディアン	-10.4218
▁栄	-10.4255
▁トライアン	-10.4262
▁雲	-10.4276
▁ヒロイン	-10.4294
▁浅草	-10.4294
▁引き続	-10.4296
▁過ぎ	-10.4296
▁受け入れ	-10.4297
▁トレーナー	-10.4299
▁ボーカル	-10.4303
▁music	-10.4309
▁具	-10.4311
▁スケート	-10.4313
也	-10.4324
▁名乗	-10.4326
訴	-10.433
負	-10.4332
獲	-10.4337
ックス	-10.4341
ifa	-10.4344
▁オス	-10.4345
▁ディ	-10.4352
▁パス	-10.436
▁中間	-10.4362
▁箱	-10.4367
まり	-10.4368
▁鑑	-10.4371
付け	-10.439
▁寿	-10.4395
▁王子	-10.4401
▁繰り返	-10.4406
▁スート	-10.4409
▁極め	-10.4411
1962	-10.4416
▁コンピュータ	-10.4419
発電	-10.4422
19	-10.4429
▁犬	-10.4433
▁玄	-10.4449
ディー	-10.4451
減	-10.4452
▁佳	-10.4455
▁no	-10.4459
メート	-10.4465
べく	-10.4467
▁望	-10.4481
▁荒	-10.4489
▁峠	-10.4494
▁176	-10.4497
▁静	-10.4498
▁炎	-10.4508
▁惑	-10.4512
▁快	-10.4519
▁ピカチュウ	-10.452
▁サンフランシスコ	-10.452
▁翻	-10.4522
▁助教	-10.4523
▁渋	-10.4528
▁湿	-10.4528
天	-10.4531
▁腹	-10.4533
アンド	-10.4536
▁ジャック	-10.4539
▁182	-10.4543
▁エリア	-10.455
ion	-10.4552
▁貞	-10.4554
▁免	-10.4559
▁克	-10.4563
ter	-10.4567
朝日	-10.4568
▁うえ	-10.4568
マール	-10.4571
▁堀	-10.4578
▁囲	-10.4579
▁善	-10.4585
セ	-10.4602
▁難し	-10.4617
z	-10.4623
ね	-10.4631
▁fm	-10.4632
▁シカゴ	-10.4635
▁見つけ	-10.4637
▁東宝	-10.4637
▁分かれ	-10.4644
▁女王	-10.4645
▁やり	-10.4657
▁バラエティ	-10.4661
▁エステル	-10.4666
▁まとめ	-10.4672
▁スクール	-10.4673
▁ハウス	-10.4674
▁63	-10.4684
▁61	-10.4686
整	-10.4689
▁ヘル	-10.4696
▁マリア	-10.471
▁51	-10.4717
▁重ね	-10.4732
▁土曜	-10.4751
▁仏教	-10.4752
ドライバー	-10.4752
▁スピード	-10.4753
▁売	-10.4756
▁秋田	-10.4766
ヤー	-10.4783
建	-10.4784
▁厚	-10.4796
港	-10.4799
▁先行	-10.481
▁集ま	-10.4811
コン	-10.4813
▁洞	-10.4813
son	-10.4816
ウェイ	-10.483
▁当たり	-10.4833
▁かか	-10.4839
▁妹	-10.4847
▁塔	-10.4849
謡	-10.4869
▁dj	-10.4871
▁覚え	-10.4871
▁プレミア	-10.4872
▁国防	-10.4874
▁ドコービル	-10.4874
▁資金	-10.4875
っと	-10.4877
▁紫	-10.4878
▁ミュージカル	-10.4878
▁教え	-10.4878
▁プラチナ	-10.4879
▁ゲンゴロウ	-10.4881
▁尼	-10.4885
▁フォード	-10.4894
▁材	-10.4898
スクワ	-10.4901
▁メッセージ	-10.4903
▁弓	-10.4903
▁ミス	-10.4908
▁五十	-10.4912
▁1939	-10.4917
▁59	-10.4917
▁渡り	-10.4918
毛	-10.4925
砲	-10.4931
▁レオ	-10.4942
▁上田	-10.4956
▁請	-10.4964
▁tour	-10.497
▁ダム	-10.4973
▁濃	-10.4981
▁大西	-10.4982
ビー	-10.4985
殖	-10.4987
▁睡眠	-10.4988
▁モンロー	-10.4988
▁it	-10.4994
17	-10.4995
▁阪神	-10.4996
▁クイーン	-10.5001
▁受け取	-10.5005
▁プログラム	-10.5009
▁尻	-10.5016
▁幾	-10.5018
▁ポー	-10.5019
dna	-10.502
ホ	-10.5021
▁狭	-10.5023
▁lb	-10.5029
僧	-10.5038
託	-10.504
円	-10.5048
頂	-10.5049
▁始	-10.5056
▁謝	-10.5071
▁大和	-10.5073
▁フリ	-10.5083
▁パイ	-10.5088
▁郊	-10.5094
皐	-10.5108
ロン	-10.5112
上げ	-10.5115
▁)」	-10.5118
▁本拠	-10.512
▁ちな	-10.5121
▁クレジット	-10.5121
▁キャ	-10.5123
ステーション	-10.5127
▁尊	-10.5132
シャー	-10.5143
▁待	-10.5144
▁大蔵	-10.5146
直	-10.5174
昇	-10.5179
祭	-10.518
キア	-10.5182
▁co	-10.519
▁カン	-10.5195
ピア	-10.52
フト	-10.5205
▁120	-10.5207
▁ヨー	-10.521
▁敬	-10.5214
▁ネットワーク	-10.5219
▁床	-10.522
▁record	-10.5221
▁ミドル	-10.5226
▁茨城	-10.523
▁そんな	-10.5231
▁報じ	-10.5231
ども	-10.5238
▁沢	-10.5241
▁鹿	-10.5246
▁逃げ	-10.5247
▁銀行	-10.5251
▁じゃ	-10.5251
▁大分	-10.5252
▁天文	-10.5253
▁168	-10.5253
▁促	-10.5266
▁ハドソン	-10.5269
アン	-10.5283
▁上回	-10.5289
ディ	-10.5289
菜	-10.5292
▁枝	-10.5293
▁征	-10.5296
鏡	-10.5299
注	-10.5304
▁ラオ	-10.5305
▁ベル	-10.5317
とう	-10.5319
レスリング	-10.5328
▁頼	-10.533
タン	-10.5332
ドル	-10.5336
械	-10.5353
▁固有	-10.5356
▁国境	-10.5357
▁マイ	-10.5358
▁梅	-10.5363
▁伸び	-10.5363
▁トレーニング	-10.5374
▁すれ	-10.5377
▁小型	-10.5378
▁パワー	-10.5382
▁ミサイル	-10.5382
▁改め	-10.5383
▁トラ	-10.5384
▁バー	-10.5387
ry	-10.5397
▁浦	-10.54
▁舞	-10.5407
▁斉	-10.5424
▁募	-10.5424
柳	-10.5431
▁東海	-10.5431
エ	-10.5432
▁ペン	-10.5434
妻	-10.5434
スイス	-10.5445
▁オブ	-10.5449
▁アイル	-10.545
ユー	-10.5452
▁郵便	-10.5478
▁鹿児島	-10.5478
▁売り上げ	-10.5479
▁ライバル	-10.5479
▁みな	-10.548
▁邸	-10.5481
▁宮城	-10.5483
▁セット	-10.5486
▁ごろ	-10.5487
14	-10.5493
10	-10.5501
▁西海	-10.5501
脈	-10.5512
▁写	-10.5516
▁ライ	-10.5518
▁シアター	-10.5527
ume	-10.5533
バン	-10.5548
▁鉱	-10.5557
賛	-10.556
ハ	-10.5564
雑	-10.5564
姓	-10.5565
▁アウト	-10.5566
▁果	-10.5572
▁軸	-10.5576
▁させ	-10.5577
シュ	-10.5579
ミー	-10.5592
▁削	-10.5605
▁弁護士	-10.5606
バスケットボール	-10.5606
▁見つか	-10.5613
▁計算	-10.5615
▁ス	-10.5646
▁矢	-10.5646
▁ユース	-10.5649
▁やま	-10.5649
▁弥	-10.565
ba	-10.5651
▁自転	-10.5663
▁コロンビア	-10.5669
▁大将	-10.5672
縦	-10.569
ムーン	-10.5691
▁カラー	-10.5694
▁もたら	-10.5694
敵	-10.5695
幸	-10.5696
ニ	-10.5707
▁ゆう	-10.5723
ギ	-10.5727
▁キャッチ	-10.5729
▁youtube	-10.5733
▁チェコ	-10.5734
ウェブサイト	-10.5735
▁みん	-10.5735
▁奴	-10.5739
▁言え	-10.574
くつ	-10.574
▁数多	-10.5742
▁ポケット	-10.5744
▁塚	-10.5747
▁祝	-10.5747
▁あげ	-10.5754
▁恵	-10.5758
▁罪	-10.5776
▁上野	-10.5783
▁代理	-10.5793
▁ガン	-10.5794
▁コミュニティ	-10.5794
▁明る	-10.5797
11	-10.5803
▁ハンガ	-10.5813
ハウス	-10.5814
▁95	-10.5816
岩	-10.5817
▁com	-10.5819
▁ぬ	-10.5823
拝	-10.5823
序	-10.5825
マーク	-10.5833
リスト	-10.5837
▁せい	-10.5839
▁滑	-10.584
▁リスト	-10.5855
▁抱	-10.586
岬	-10.5863
▁埴	-10.5865
▁思想	-10.5866
▁理解	-10.5868
▁小林	-10.5874
tation	-10.5878
▁iii	-10.588
▁東西	-10.5881
▁テン	-10.5895
ント	-10.5896
代目	-10.5896
恵	-10.5897
▁中部	-10.5897
▁パート	-10.591
▁柳	-10.5913
▁傍	-10.5929
▁卒	-10.5931
触	-10.5933
▁あら	-10.5934
▁プロモーション	-10.594
玉	-10.595
大公	-10.5956
鳥	-10.5962
項	-10.5964
▁ニ	-10.5976
▁格	-10.5979
ボ	-10.5979
ロック	-10.5981
▁飲	-10.5991
▁ポート	-10.5992
〉	-10.5995
▁つとめ	-10.5996
▁綾	-10.5996
▁摂	-10.5997
▁75	-10.5998
▁週刊	-10.5999
▁気象	-10.6
ソフトウェア	-10.6001
▁ユニ	-10.6005
▁オール	-10.6006
▁金沢	-10.6007
▁ブライアン	-10.6007
▁券	-10.601
▁サイド	-10.6013
▁チャンピオン	-10.6013
▁バイ	-10.6014
▁ギ	-10.6022
▁引き	-10.6024
▁ナチ	-10.6029
▁キャラ	-10.6031
▁溝	-10.6041
▁賛	-10.6041
▁ル	-10.6046
▁柔	-10.6047
▁しまい	-10.6052
▁避け	-10.6055
▁至っ	-10.6066
▁しょ	-10.6073
▁前方	-10.6079
▁1941	-10.6092
▁倉	-10.6094
ラント	-10.6095
殿	-10.6099
絶	-10.6099
絵	-10.61
熱	-10.6101
悪	-10.6102
▁焼	-10.6105
渡	-10.6106
▁け	-10.6106
やが	-10.611
▁tm	-10.6111
▁ユダ	-10.6115
▁蔵	-10.6127
▁*	-10.6128
楕	-10.6128
▁ノーフォーク	-10.6128
▁危機	-10.613
▁〈	-10.613
▁交差	-10.6131
▁箇	-10.6134
▁コピー	-10.6135
▁デモ	-10.6136
▁ゴールデン	-10.6139
▁遅れ	-10.6141
▁修道	-10.6141
▁デジタル	-10.6142
なる	-10.6147
▁分子	-10.6152
ず	-10.6154
ビュー	-10.6154
▁抵	-10.6155
▁まち	-10.616
▁表面	-10.6172
bs	-10.6175
00	-10.618
▁コーン	-10.6194
▁コート	-10.6197
▁ひろ	-10.6199
▁#	-10.6204
っとも	-10.6205
▁照	-10.6211
▁かかわ	-10.6217
▁バーモン	-10.6222
▁勲	-10.6225
松本	-10.6227
荷	-10.6232
威	-10.6235
ゲ	-10.6237
▁属す	-10.624
▁暦	-10.6241
▁助け	-10.6251
▁キリスト	-10.6263
▁リオデジャネイロ	-10.6263
▁ショウタイム	-10.6263
▁亮	-10.6266
▁テキサス	-10.6266
▁保育	-10.6267
hbo	-10.6268
▁ジャンル	-10.6269
▁患	-10.6271
▁昔	-10.6285
▁囚	-10.6294
▁ラウンド	-10.6295
▁去	-10.6299
▁アナ	-10.6302
使	-10.6313
▁浮	-10.6336
▁止め	-10.634
チェンジ	-10.6341
ダン	-10.6347
▁海上	-10.635
▁64	-10.6353
▁連れ	-10.6363
振	-10.6365
のみ	-10.6365
▁メガ	-10.6371
納	-10.6373
▁呼び	-10.6373
ーランド	-10.6375
奈	-10.6375
▁策	-10.6393
α	-10.64
▁相談	-10.6403
▁ランカスター	-10.6407
切り	-10.6408
▁神経	-10.6408
▁暴力	-10.6412
▁チャ	-10.6415
▁ハリウッド	-10.6415
▁カル	-10.6418
▁唐	-10.6419
▁ライセンス	-10.6419
▁指宿	-10.642
▁北陸	-10.6421
▁あい	-10.6426
▁ドア	-10.6428
▁サイズ	-10.643
▁訪	-10.6439
レン	-10.6443
▁乙	-10.6444
▁晩	-10.6444
▁アプリ	-10.6444
▁ミュージシャン	-10.6444
▁支払	-10.6456
▁an	-10.6473
フォン	-10.6474
パ	-10.6475
▁融	-10.6475
▁大人	-10.6477
▁ライダー	-10.6477
▁ジョー	-10.6481
▁エア	-10.6484
▁スロ	-10.6486
▁災	-10.6498
マー	-10.65
乗	-10.6503
途	-10.6503
クトル	-10.6508
▁マル	-10.651
hydro	-10.6514
環	-10.6518
満	-10.652
▁エン	-10.6521
雨	-10.6522
▁ic	-10.6523
激	-10.6524
wbo	-10.6525
▁クリス	-10.6526
艇	-10.6539
▁取り上げ	-10.654
クリーク	-10.6541
▁伊藤	-10.6542
▁黄色	-10.6542
▁不安	-10.6544
▁平城	-10.6549
▁印	-10.6553
▁生え	-10.6555
▁納	-10.6558
▁序	-10.658
▁嫌	-10.6581
ード	-10.6588
▁陰	-10.6593
▁召	-10.6607
▁マラソン	-10.661
ヒドロ	-10.6614
▁護	-10.6615
▁引き継	-10.6615
▁デン	-10.6622
▁パー	-10.6627
▁越	-10.6652
ース	-10.6655
ウルトラ	-10.666
印	-10.6663
永	-10.6666
ーニャ	-10.6672
ロード	-10.6673
▁繋が	-10.668
禄	-10.668
▁つなが	-10.668
▁ウルトラサン	-10.668
30	-10.6681
ティング	-10.6682
▁告げ	-10.6683
ゾウ	-10.6683
▁ブルー	-10.669
▁擁	-10.6691
▁支え	-10.6694
▁ゼロ	-10.6696
▁スコット	-10.6697
▁どこ	-10.6706
岐	-10.6707
▁つか	-10.6709
▁硬	-10.6712
取り	-10.6713
▁誘	-10.6715
▁賢	-10.6717
▁想	-10.6717
▁めぐ	-10.6719
▁大使	-10.6719
▁学習	-10.672
▁on	-10.6724
▁ナ	-10.673
ミング	-10.6736
▁浪	-10.6743
学院	-10.6751
▁瞬	-10.6752
▁毒	-10.6758
▁幹	-10.6762
▁無く	-10.6767
さん	-10.6791
▁充	-10.6792
ダヤ	-10.68
▁リンク	-10.6812
消	-10.6813
▁須	-10.6816
氏	-10.6816
基	-10.6817
准	-10.6823
▁掲げ	-10.6823
▁容易	-10.6824
▁函館	-10.6825
▁勉	-10.6825
民主	-10.6829
▁棒	-10.6831
▁富山	-10.6838
ルビー	-10.6851
つき	-10.6861
b	-10.6866
▁偽	-10.6869
▁キャスト	-10.6871
▁同期	-10.6878
▁滝	-10.6879
▁儀	-10.6884
▁ゲ	-10.6888
▁ディー	-10.6905
薦	-10.6914
▁72	-10.6921
垣	-10.6922
ビル	-10.6929
窪	-10.6934
▁短期	-10.6937
▁抑え	-10.6941
継	-10.6941
▁早く	-10.6947
タリー	-10.6953
培	-10.6955
▁いか	-10.6956
▁パーク	-10.6962
▁ト	-10.6962
魔	-10.6964
反	-10.6966
后	-10.6968
▁ジャケット	-10.6971
▁ボー	-10.6974
▁ナイト	-10.6981
▁オレンジ	-10.6984
▁働き	-10.6992
▁幻	-10.6992
▁芳	-10.6995
ment	-10.6995
▁携わ	-10.6996
▁抜け	-10.6998
▁覚	-10.6998
▁薄	-10.7001
▁有理	-10.7001
▁傘	-10.7006
▁ディストリクト	-10.7006
▁懸	-10.701
▁単行	-10.7013
▁シネマ	-10.702
▁塗	-10.702
▁網	-10.7023
▁撃	-10.7025
▁76	-10.7031
▁畑	-10.7034
ヘン	-10.7037
▁ロング	-10.7046
ブルク	-10.7049
▁ヘ	-10.7051
▁詞	-10.7052
▁響	-10.7054
本線	-10.7056
▁明か	-10.7057
▁希	-10.7059
▁まさ	-10.7068
▁碑	-10.7077
▁600	-10.7082
パーク	-10.7101
▁浸	-10.7103
▁al	-10.7105
ファー	-10.7112
劉	-10.7115
駐屯	-10.7115
▁表彰	-10.7115
竹	-10.7116
湖	-10.7117
▁オープニング	-10.7117
朝鮮	-10.7118
▁味	-10.7125
▁school	-10.7131
▁関心	-10.7134
ァルツ	-10.7138
▁リチャード	-10.7139
▁バラ	-10.7164
ty	-10.7164
▁メロディ	-10.7173
▁避	-10.7174
ライト	-10.7182
▁オー	-10.7183
▁くら	-10.7188
入れ	-10.7193
▁800	-10.7194
▁掛け	-10.7201
▁瀬	-10.7203
▁ケ	-10.7203
▁ニック	-10.7204
警備	-10.7211
徳	-10.7212
▁sk	-10.7215
▁辺	-10.7219
▁アクセ	-10.7228
▁バル	-10.7228
▁旨	-10.7231
込み	-10.7242
婦	-10.7242
ドン	-10.7243
▁av	-10.725
オン	-10.7254
富	-10.7255
縮	-10.7262
▁トヨタ	-10.7264
▁組み合わせ	-10.7264
塾	-10.7266
▁広げ	-10.7266
▁甲斐	-10.7267
ヘビー	-10.7268
丸	-10.7269
陣	-10.7269
銃	-10.7269
喜	-10.7269
▁累	-10.7271
東京	-10.7277
▁翼	-10.7279
▁不正	-10.7279
▁コンセプト	-10.728
アル	-10.7283
▁ネ	-10.7285
▁虎	-10.7298
▁金メ	-10.7299
浜	-10.7306
▁モード	-10.7308
▁荻	-10.7325
▁ブリ	-10.7335
▁液	-10.7338
um	-10.734
▁ほし	-10.7344
ンキング	-10.7348
▁まつ	-10.7351
キー	-10.7355
▁援	-10.737
▁ウ	-10.7374
▁留ま	-10.738
▁もっ	-10.7396
運	-10.7414
剤	-10.7415
防	-10.7415
臓	-10.7416
▁ハワイ	-10.7416
戒	-10.7418
▁ブレスト	-10.7419
須	-10.7423
▁クリントン	-10.7423
投	-10.7427
▁耳	-10.7432
▁クリスタル	-10.7432
▁美し	-10.7433
▁エリック	-10.7433
プフ	-10.7435
▁ps	-10.7445
▁厳	-10.7452
▁親し	-10.7453
▁テ	-10.7455
▁刀	-10.7467
▁マス	-10.7475
▁炭	-10.7481
▁いえ	-10.7499
ボン	-10.7501
▁吹	-10.7501
ラム	-10.7514
▁山田	-10.7514
コレクション	-10.7515
▁ヒーロー	-10.7515
▁ぎ	-10.754
答	-10.7545
▁診	-10.7549
条	-10.7551
ナス	-10.7556
隷	-10.7557
▁ぜ	-10.756
▁flo	-10.756
▁褐	-10.7568
唆	-10.7569
膚	-10.7569
賊	-10.7569
▁訴え	-10.757
▁66	-10.7571
▁ロバート	-10.7571
▁マイク	-10.7572
▁次第	-10.7573
ナイフ	-10.7573
▁ちなみ	-10.7577
宝	-10.7578
ネーム	-10.7579
床	-10.7583
竜	-10.7585
奪	-10.7586
担	-10.7586
ソ	-10.7592
▁狩	-10.76
l	-10.7602
▁軒	-10.761
▁献	-10.7611
16	-10.7617
▁いけ	-10.7624
▁ルイス	-10.7632
なっ	-10.7637
▁粒	-10.7643
▁『"	-10.7651
や	-10.7655
▁モノ	-10.7657
もの	-10.7663
▁荘	-10.7667
▁締	-10.7668
▁訴	-10.7673
▁ユー	-10.7679
▁典	-10.7689
▁斎	-10.7694
▁リズム	-10.7698
▁―	-10.7701
▁"」	-10.7708
gle	-10.7716
▁トラン	-10.7717
▁先駆	-10.7726
▁圧倒	-10.7726
▁ポリ	-10.7727
▁ジャズ	-10.7733
▁徳島	-10.7734
▁トーク	-10.7735
▁菅	-10.7737
▁中山	-10.7739
イラク	-10.7739
アリーナ	-10.7741
▁ディレクター	-10.7743
▁司法	-10.7743
郊	-10.7744
豪	-10.7745
縁	-10.7746
▁vol	-10.7747
休	-10.7747
▁さえ	-10.7764
ながら	-10.7766
▁療	-10.7767
▁吉田	-10.7769
火災	-10.777
▁メール	-10.7775
▁情	-10.7777
バード	-10.7786
▁探し	-10.7791
カット	-10.7795
穂	-10.7804
▁かん	-10.7808
▁78	-10.7808
▁次い	-10.7815
▁よし	-10.7828
▁歯	-10.7829
▁婚	-10.7839
▁グラ	-10.784
▁不動	-10.7845
こそ	-10.7861
▁穂	-10.7865
▁fa	-10.787
▁奏	-10.7878
▁ページ	-10.7879
▁フェア	-10.7882
▁勧め	-10.7884
償	-10.7884
牲	-10.7884
犠	-10.7884
▁打ち上げ	-10.7885
ギリシャ	-10.7885
99	-10.7886
筒	-10.7889
▁遺伝	-10.7889
飾	-10.7892
済	-10.79
▁稼	-10.7902
/	-10.7903
特	-10.7911
▁雇	-10.7919
▁しばら	-10.7922
▁春日	-10.7927
▁ジ	-10.7929
▁コミック	-10.7929
ゴン	-10.793
▁神学	-10.793
▁分か	-10.7932
▁季	-10.795
▁微	-10.7955
▁頂	-10.7963
▁伸	-10.7965
▁敏	-10.797
▁91	-10.7976
01	-10.798
ice	-10.7983
▁アイス	-10.7987
▁モン	-10.7996
トアニ	-10.8007
▁冊	-10.8025
▁脳	-10.8025
▁クラ	-10.8027
▁プラス	-10.8033
▁ca	-10.8035
▁歌舞伎	-10.8046
カンパニー	-10.8046
マネジメント	-10.8046
憶	-10.8046
魂	-10.8046
▁by	-10.8046
福祉	-10.8046
▁誘導	-10.8047
ユニオン	-10.8053
供給	-10.8056
▁祖父	-10.8058
▁盗	-10.8059
▁ゴルフ	-10.8062
▁クーパー	-10.8063
▁満た	-10.8065
▁自衛	-10.8067
▁恩	-10.8068
▁ストップ	-10.8069
読	-10.8069
▁ピーター	-10.8074
貨	-10.8076
隣	-10.8077
詳	-10.8078
▁鼻	-10.8078
▁87	-10.8082
▁清水	-10.8085
▁グル	-10.8086
st	-10.8089
ケット	-10.809
▁大佐	-10.8115
▁厳し	-10.8116
▁メス	-10.813
▁まし	-10.8131
芸	-10.8133
ージ	-10.8133
▁イラスト	-10.8134
▁主体	-10.8135
▁"、	-10.8152
分裂	-10.8155
▁乗っ	-10.8165
▁パンチ	-10.8175
▁隠	-10.8191
▁スカ	-10.8199
▁ハン	-10.8199
▁二つ	-10.8199
匠	-10.821
崔	-10.821
旦	-10.821
昧	-10.821
▁鵜飼	-10.821
▁with	-10.821
▁絶対	-10.8211
▁オンライン	-10.8213
▁忘れ	-10.8213
▁衝撃	-10.8217
▁74	-10.8218
▁岡山	-10.8219
▁ポンド	-10.8224
▁河口	-10.8224
▁借り	-10.8226
▁猛	-10.8227
▁タンパク	-10.8227
▁スクリーン	-10.8228
医科	-10.8229
税	-10.823
▁糞	-10.8237
▁69	-10.8238
祖	-10.8242
vp	-10.8243
斎	-10.8243
▁浩	-10.8245
弘	-10.8245
▁ウェイン	-10.8245
▁イー	-10.8246
アナ	-10.825
▁ray	-10.8251
▁サブ	-10.8272
▁サラ	-10.8274
▁打ち	-10.8276
込	-10.8284
▁1931	-10.8308
▁ボ	-10.8326
▁アトラン	-10.8334
▁パーティ	-10.8341
▁益	-10.835
カード	-10.8357
▁討	-10.8358
▁タラ	-10.836
げ	-10.8364
▁テロ	-10.8365
ウム	-10.8366
▁vs	-10.8367
殻	-10.8376
砦	-10.8376
▁スマッシュブラザーズ	-10.8376
▁fgf	-10.8376
▁師範	-10.8377
▁突破	-10.8377
▁ダーク	-10.8378
▁普段	-10.8378
▁触れ	-10.8379
▁マイケル	-10.8379
▁シドニー	-10.8379
スン	-10.8382
▁オーバー	-10.8384
▁剛	-10.8389
▁勇	-10.8392
▁クリア	-10.8393
▁アクション	-10.8399
▁パフォーマンス	-10.8399
峰	-10.8406
▁net	-10.8407
▁ぐん	-10.8409
替え	-10.841
▁威	-10.8411
▁goo	-10.8412
純	-10.8418
▁爵	-10.8421
▁けん	-10.8429
▁フィルム	-10.8431
▁メイ	-10.8435
▁ヘリ	-10.8446
25	-10.8446
ルス	-10.845
▁アルベ	-10.8471
トル	-10.8484
エア	-10.8489
▁オルガ	-10.8492
肢	-10.8494
▁サウス	-10.8497
▁86	-10.8505
▁笑	-10.8515
▁アメリカン	-10.8525
▁互い	-10.8535
▁テル	-10.8543
▁日曜	-10.8546
轄	-10.8546
▁おそらく	-10.8546
▁どんな	-10.8546
▁plays	-10.8547
▁フィリピ	-10.8549
▁特許	-10.8551
kyo	-10.8552
▁プ	-10.8553
▁アリ	-10.8556
▁斜	-10.8564
雪	-10.8568
▁佐々	-10.8568
庫	-10.857
▁ひとり	-10.8572
▁まも	-10.8573
▁あき	-10.8588
▁昼	-10.859
▁シート	-10.8592
貫	-10.8594
群	-10.8595
▁ロイヤル	-10.8595
▁ヒル	-10.8603
▁縦	-10.8603
▁ガント	-10.861
▁ビジネス	-10.8611
▁人工	-10.8613
ゅうがっこう	-10.8614
▁走り	-10.8615
マッチ	-10.8617
▁うた	-10.862
▁野田	-10.8621
フィン	-10.8632
▁椎	-10.8638
▁堤	-10.8643
▁エー	-10.8644
▁ばか	-10.8651
▁プレ	-10.8653
アイ	-10.8655
▁向かい	-10.8661
シングルス	-10.868
▁my	-10.8681
▁[	-10.8696
▁に従	-10.87
lub	-10.87
▁売上	-10.8706
▁長年	-10.871
▁崇	-10.8716
▁塾	-10.8716
▁綱	-10.8717
▁ナポレオン	-10.8718
▁気持ち	-10.8722
▁ハンター	-10.8728
ジュール	-10.8729
▁sf	-10.8729
▁厚生	-10.8731
▁トレイン	-10.8733
▁abc	-10.8734
▁:"	-10.8741
▁リア	-10.8742
▁ラスト	-10.8742
▁三重	-10.8745
ヴァン	-10.875
武	-10.8753
▁菊	-10.8758
▁目立	-10.8759
栄	-10.8761
▁青山	-10.8761
オフ	-10.8763
▁メタル	-10.8766
▁地中	-10.8769
▁晴	-10.877
ジュニア	-10.8773
▁blu	-10.8773
宗	-10.8773
単	-10.8774
▁同級	-10.8776
附属	-10.8779
ia	-10.8782
▁問わ	-10.8787
ピット	-10.8787
しく	-10.8797
▁ニコ	-10.8805
▁優れ	-10.8809
fc	-10.8814
▁ha	-10.8821
ヌクレオチド	-10.8822
▁ボックス	-10.8832
はり	-10.8836
▁はず	-10.8836
▁脇	-10.8844
▁随	-10.8844
▁250	-10.8847
▁ノース	-10.8855
▁つま	-10.8863
ta	-10.8867
▁育て	-10.8873
▁環	-10.8878
▁super	-10.8881
▁コンビ	-10.8893
▁安倍	-10.8894
▁幼稚	-10.8894
娠	-10.8894
涯	-10.8894
▁ntt	-10.8894
販	-10.8895
▁クリスチャン	-10.8896
▁猫	-10.8897
▁ウォーレン	-10.8897
▁渦巻	-10.8897
替	-10.8899
▁跋	-10.8902
▁67	-10.8903
メイク	-10.8905
パス	-10.8906
▁アー	-10.8909
▁珍し	-10.891
▁フレディ	-10.891
あ	-10.891
▁室内	-10.8911
シア	-10.8913
▁mc	-10.8916
▁桃	-10.8917
▁藍	-10.8918
ファイア	-10.892
▁ファミリー	-10.8926
▁カレッジ	-10.8926
aaa	-10.8927
▁ブロック	-10.893
▁nd	-10.893
労	-10.8936
霊	-10.8947
経	-10.8948
深	-10.8953
▁チャイルド	-10.8967
is	-10.8973
▁茶	-10.8983
▁ガール	-10.8984
ィ	-10.8986
▁ひと	-10.8991
tv	-10.9001
▁3000	-10.9002
金属	-10.9006
ラビア	-10.9009
▁サイ	-10.9014
▁霊	-10.9026
▁きょう	-10.9028
▁ポン	-10.903
宰	-10.9033
▁ジャー	-10.9037
▁もっと	-10.9039
▁ゆき	-10.9066
▁に際し	-10.9066
出し	-10.907
▁twit	-10.9072
キャンペーン	-10.9072
▁諏訪	-10.9072
パウロ	-10.9072
▁キリスト教	-10.9073
トルコ	-10.9074
トイレ	-10.9075
▁モリス	-10.9076
▁紛	-10.9081
▁寄せ	-10.9088
▁期限	-10.9091
シン	-10.9092
▁グレート	-10.9093
▁予告	-10.9098
▁予備	-10.9098
▁フォー	-10.9117
▁慈	-10.9118
▁"(	-10.9119
▁ネルソン	-10.9119
▁才	-10.9127
麗	-10.9128
▁底	-10.9132
贈	-10.9136
▁ムーン	-10.9136
▁腰	-10.9141
▁糸	-10.9147
▁コラボレー	-10.9147
ロウ	-10.9149
▁彦	-10.9165
▁おか	-10.9166
▁とどま	-10.9174
▁佐久	-10.9175
008	-10.9175
ベルト	-10.9178
▁はっき	-10.9186
▁聞き	-10.9189
テスト	-10.9211
▁キン	-10.9214
阪	-10.9217
カン	-10.9219
▁冷	-10.9225
▁愛媛	-10.9254
▁繰り広げ	-10.9254
▁金曜	-10.9254
噂	-10.9254
▁アシスタント	-10.9254
▁グラッド	-10.9254
▁印象	-10.9255
スカウト	-10.9256
▁伊勢	-10.9256
▁堅	-10.9259
▁眼	-10.9259
▁双方	-10.9261
▁涙	-10.9263
efa	-10.9263
▁逃れ	-10.9265
デル	-10.9265
シティ	-10.9268
▁生み出	-10.9269
▁並び	-10.927
▁数え	-10.9273
▁淳	-10.9274
ッツ	-10.9275
▁岩手	-10.9277
サン	-10.928
21	-10.928
ベン	-10.9286
▁政務	-10.9287
▁調べ	-10.929
▁当て	-10.9293
アームズ	-10.9297
▁シャトー	-10.9302
▁ルイ	-10.9303
▁ゴー	-10.9305
カーリング	-10.9306
▁one	-10.931
▁拝	-10.931
淵	-10.9317
▁干	-10.9322
▁ブラ	-10.9322
ポール	-10.9327
顔	-10.9329
英	-10.933
ロー	-10.933
著	-10.933
▁邦	-10.9331
▁クレイ	-10.9333
システム	-10.9336
▁ラス	-10.9336
ラート	-10.9348
▁いつ	-10.935
▁贈	-10.9355
g	-10.9357
▁屈	-10.9358
くま	-10.936
w	-10.9369
▁房	-10.9379
▁自民	-10.9381
▁オフ	-10.9382
▁マナ	-10.9384
▁朝日	-10.939
▁シャー	-10.9399
▁マネージャ	-10.9407
▁ベルト	-10.9408
▁ブーン	-10.9415
▁700	-10.9418
▁本当	-10.9427
▁perf	-10.9439
▁潜水	-10.9439
應	-10.9439
謎	-10.9439
▁琉球	-10.9439
▁ケーブル	-10.9439
▁宝塚	-10.944
▁棟	-10.9442
▁漆	-10.9442
▁カム	-10.9443
▁能美	-10.9443
▁転換	-10.9445
フィ	-10.9447
▁ベトナム	-10.9448
▁バグダー	-10.945
▁肩	-10.9452
▁水戸	-10.9457
12	-10.9458
▁忍	-10.946
▁抱え	-10.946
▁徹	-10.947
スミス	-10.9475
▁痛	-10.9478
▁豊田	-10.9479
▁gla	-10.9485
▁star	-10.9493
華	-10.9493
洲	-10.9493
▁かわ	-10.9493
▁筆	-10.9493
▁エンド	-10.9495
▁スト	-10.9496
森	-10.95
菌	-10.9514
プロモーション	-10.9518
堀	-10.9519
繁	-10.952
▁交わ	-10.9521
bf	-10.9527
▁ワード	-10.9544
▁肥	-10.9546
▁コール	-10.9559
ケイン	-10.9563
▁誠	-10.9566
▁丹	-10.9576
▁シャ	-10.9577
ッド	-10.958
づけ	-10.9593
合同	-10.9599
ary	-10.96
▁cc	-10.9606
▁175	-10.961
ヒ	-10.9615
;	-10.9619
tion	-10.9624
▁パラ	-10.9624
▁アテネ	-10.9628
▁ユニバーサル	-10.9628
牌	-10.9628
看護	-10.9628
貿	-10.9628
▁ローカル	-10.9628
▁ボストン	-10.9629
▁格闘	-10.963
▁資源	-10.9632
▁答え	-10.9637
▁コスト	-10.9638
▁停車	-10.964
▁餌	-10.9643
▁偶	-10.9643
▁プレゼン	-10.9644
▁ふん	-10.9644
▁叔	-10.9654
▁ナショナル	-10.9654
▁ウルトラ	-10.9659
▁アプリケーション	-10.9665
老	-10.9665
▁pv	-10.9667
▁彩	-10.9675
▁架	-10.9676
モン	-10.9682
▁ka	-10.9687
うち	-10.9693
エンタテインメント	-10.9693
▁なれ	-10.9697
駅	-10.9703
▁流行	-10.9708
ニング	-10.971
毒	-10.9714
佐久	-10.9715
占	-10.9716
欠	-10.9717
ドラマ	-10.9719
▁取ら	-10.9725
。	-10.9734
▁110	-10.9738
▁大平	-10.9741
▁マリ	-10.9744
▁88	-10.9745
ーン	-10.9748
▁all	-10.9752
▁歌い	-10.9755
▁法学	-10.9766
▁タワー	-10.977
▁め	-10.9782
▁大谷	-10.9786
▁ビー	-10.9788
▁賀	-10.9805
寧	-10.982
擢	-10.982
▁スラム	-10.9821
塁	-10.9822
▁ユーロ	-10.9822
▁西日本	-10.9822
▁パル	-10.9823
▁信じ	-10.9823
▁柏	-10.9823
▁博多	-10.9824
▁ガラス	-10.9826
チャールズ	-10.9827
▁フー	-10.983
▁法政大	-10.9833
▁倒れ	-10.9834
▁セーブ	-10.9835
▁エセックス	-10.9835
▁エイ	-10.9836
▁130	-10.9837
▁am	-10.9838
▁1900	-10.9843
▁印刷	-10.9847
▁甲子	-10.9857
▁猿	-10.9858
緯	-10.9874
▁手続	-10.9875
▁伝わ	-10.9875
ation	-10.9882
短期大学	-10.9891
俗	-10.9898
指	-10.9898
仰	-10.9899
岳	-10.9907
句	-10.9909
枝	-10.9909
wa	-10.991
弱	-10.9917
片	-10.9917
ライン	-10.9917
▁bs	-10.9926
▁北方	-10.9927
ノイ	-10.9931
▁衛	-10.9933
タゴ	-10.9946
▁張	-10.9951
▁棄	-10.9951
▁sn	-10.9956
▁160	-10.9959
▁丹後	-10.9968
▁〜」	-10.9972
▁フラン	-10.9973
ノス	-11.0008
▁針	-11.0012
▁恐れ	-11.0016
妃	-11.0016
膜	-11.0016
訟	-11.0016
フィッシュ	-11.0018
▁森林	-11.0019
▁耐	-11.0019
▁メダリスト	-11.002
▁げ	-11.0021
▁高浜	-11.0024
▁慎	-11.0025
▁知り合	-11.0029
▁アレンジ	-11.0032
▁並行	-11.0033
▁オフィス	-11.0038
▁乗せ	-11.0038
▁ドラム	-11.0038
ドレー	-11.0039
▁スーツ	-11.0043
▁鐘	-11.0044
▁world	-11.005
ランス	-11.0061
▁したがっ	-11.0062
▁シェル	-11.0066
▁徒	-11.0067
ウォリ	-11.0071
▁大塚	-11.0071
▁coa	-11.0072
弟	-11.0073
▁又	-11.0074
廷	-11.0079
▁戯	-11.008
ton	-11.0082
ロス	-11.0085
哉	-11.0088
▁捨て	-11.0093
▁宅	-11.0107
アフリカ	-11.0114
▁灯	-11.0116
弁	-11.012
腕	-11.0121
▁高め	-11.0149
▁中京	-11.015
▁つき	-11.0159
▁ミランダ	-11.0185
原子力	-11.0187
▁ノン	-11.0196
▁沙	-11.0205
▁ツール	-11.0211
▁"』	-11.0214
▁舞踊	-11.0216
諾	-11.0216
▁97	-11.0218
▁突然	-11.0218
▁ダブル	-11.0219
▁斬	-11.022
▁ハーキマー	-11.022
▁天神	-11.0221
▁管制	-11.0222
▁モンゴル	-11.0223
▁gm	-11.0224
イル	-11.0224
▁85	-11.0226
▁通じ	-11.0226
▁ブッシュ	-11.0226
▁モル	-11.0231
▁グロ	-11.0234
▁ラブ	-11.0235
なか	-11.0239
▁170	-11.0242
▁書記	-11.0251
▁保安	-11.0257
▁うま	-11.0257
▁ver	-11.0258
▁「"	-11.0259
▁at	-11.0268
▁99	-11.0271
08	-11.0271
タム	-11.0273
▁市町	-11.0275
トラック	-11.0277
▁鶴	-11.0294
▁梁	-11.03
▁それで	-11.0301
チュー	-11.0303
▁鏡	-11.0306
▁見出	-11.0308
ラク	-11.0314
無	-11.0315
▁cs	-11.0318
許	-11.0324
乃	-11.0324
ウイル	-11.0326
畑	-11.0327
▁os	-11.0328
冠	-11.0329
ませ	-11.0329
まれ	-11.033
処	-11.033
▁cit	-11.0332
gm	-11.0333
▁動か	-11.0334
▁織	-11.0351
▁カマ	-11.0361
▁象	-11.0364
セン	-11.0378
オバ	-11.0384
トゥー	-11.0386
▁やっ	-11.0397
▁落とし	-11.04
▁高山	-11.0402
▁ハード	-11.0409
ance	-11.0412
▁給	-11.0414
▁ドキュメン	-11.0416
▁league	-11.042
▁前方後円	-11.042
▁月曜	-11.042
閲	-11.042
▁捕らえ	-11.0421
▁國	-11.0424
▁膝	-11.0424
▁薬師	-11.0426
▁島根	-11.0426
▁財務	-11.0427
▁ドライブ	-11.0427
▁フロリダ	-11.043
▁寸	-11.0442
▁胴	-11.0442
▁エリザベス	-11.0443
▁ダニエル	-11.0443
▁115	-11.0449
▁トロント	-11.0456
▁ファイト	-11.0464
▁宇	-11.0473
▁騒	-11.0479
▁寄り	-11.0482
▁アンダー	-11.0482
立て	-11.0484
▁キャスター	-11.0488
▁ウィー	-11.0491
ヴ	-11.0492
▁マガジン	-11.0493
lb	-11.0516
盛	-11.0518
▁ケル	-11.0525
▁ミル	-11.0529
▁宏	-11.0531
括	-11.0532
雷	-11.0535
延	-11.0536
獣	-11.0537
儀	-11.0539
炭	-11.0539
向き	-11.0543
マルカ	-11.0549
ジュ	-11.0563
民国	-11.0571
帝国	-11.0573
ゾ	-11.0579
▁当た	-11.0581
ジャー	-11.0591
▁ライフ	-11.0592
スカントリー	-11.0597
▁乗り	-11.06
サット	-11.0601
▁朗	-11.0609
らく	-11.0609
ess	-11.0619
▁ノーラ	-11.063
▁pc	-11.0631
▁アーク	-11.0632
▁肺	-11.0632
▁増や	-11.0633
▁福井	-11.0634
ego	-11.0637
▁シンガー	-11.0637
▁筑波	-11.0638
▁りゅう	-11.0639
▁ストレート	-11.0639
▁京都大	-11.064
▁あな	-11.0641
90	-11.0645
▁笠	-11.0649
▁込め	-11.0652
バンド	-11.0652
バイク	-11.0654
▁ライヴ	-11.0656
▁なぜ	-11.0657
▁コンテンツ	-11.0658
▁クリスマス	-11.0658
75	-11.0662
▁祐	-11.0667
▁闇	-11.0671
▁綿	-11.0671
▁ょう	-11.0676
▁需	-11.0684
▁検査	-11.0689
▁ブラウン	-11.0691
▁1922	-11.0694
ジムリーダー	-11.0695
▁キャンプ	-11.0696
ジョージア	-11.0698
70	-11.0698
ぬ	-11.0705
「	-11.0706
▁ボス	-11.0718
▁しん	-11.0734
ない	-11.0735
▁切っ	-11.0737
▁ベン	-11.0739
▁ウェル	-11.0753
巣	-11.0753
皇	-11.0758
▁ゴ	-11.0765
▁苦し	-11.0769
経済学部	-11.0771
▁グレイ	-11.0772
▁レン	-11.0775
▁サイン	-11.0782
▁知り	-11.0783
たま	-11.0794
イデア	-11.0808
▁チェスター	-11.0809
▁同名	-11.081
▁一体	-11.0813
楽器	-11.0813
▁生年	-11.0814
▁スタジアム	-11.0815
メイト	-11.0828
ツキ	-11.0829
呂	-11.0835
▁シンガ	-11.0838
雰	-11.0841
▁保健	-11.0842
▁仕掛け	-11.0842
▁ベルリン	-11.0842
▁マシン	-11.0842
▁ルイジ	-11.0843
ショップ	-11.0844
▁天使	-11.0844
▁啓	-11.0845
▁研修	-11.0846
▁スケ	-11.0846
▁バラク	-11.0847
▁衛生	-11.0849
▁降り	-11.085
▁坪	-11.0851
▁勃	-11.0851
▁エンジニア	-11.0852
▁使え	-11.0852
っぷ	-11.0853
▁財政	-11.0854
▁文庫	-11.0854
ッカー	-11.0854
ッチ	-11.0856
▁修理	-11.0863
▁重量	-11.0865
コフ	-11.0865
▁rad	-11.0869
▁メン	-11.0872
24	-11.0873
▁拳	-11.0878
▁釜	-11.0878
▁備	-11.0879
▁沼	-11.0881
▁ケリー	-11.0881
▁ムービー	-11.0883
▁陵	-11.0888
▁ルート	-11.0896
h	-11.0907
▁アルファ	-11.0924
▁フラ	-11.093
ポーター	-11.093
▁ケン	-11.0937
▁奈	-11.0937
ーター	-11.0942
▁インターナショナル	-11.0944
▁デュ	-11.0945
▁区分	-11.0949
ゲン	-11.0952
ガス	-11.0964
倒	-11.0969
▁バリー	-11.0976
酒	-11.0978
干	-11.0978
迫	-11.0981
天皇	-11.0981
▁コメン	-11.0983
グループ	-11.0983
歴	-11.0983
公園	-11.0988
▁ゴロ	-11.0988
▁ata	-11.0995
▁ふた	-11.0999
▁ロジャー	-11.1
▁125	-11.1002
▁成人	-11.101
タル	-11.1021
変わら	-11.1022
▁ぞ	-11.1024
▁庭	-11.1025
ライナ	-11.1026
ate	-11.1028
▁ファー	-11.1034
▁ネーム	-11.1048
ウ	-11.1048
▁コマ	-11.1049
▁-』	-11.1051
▁new	-11.1054
▁シンガーソングライター	-11.1059
▁フィニステ	-11.1059
★	-11.1059
纂	-11.1059
フェスティバル	-11.1059
▁マイナー	-11.1063
▁パターン	-11.1064
▁クー	-11.1069
▁リクエスト	-11.1069
▁ファースト	-11.107
▁カラ	-11.1074
▁バイエル	-11.1076
▁巴	-11.1076
▁レストラン	-11.1076
▁ロボット	-11.1076
▁フロント	-11.1076
▁勤め	-11.1076
ブルース	-11.1081
▁羊	-11.1082
フェ	-11.1088
▁最年	-11.1092
▁爾	-11.1096
ショー	-11.1096
▁デザイナー	-11.1103
▁荷	-11.1109
▁耕	-11.1109
ーク	-11.111
▁ケース	-11.1118
▁シー	-11.1122
油	-11.1123
▁キャロ	-11.1123
▁ほん	-11.1132
▁与	-11.1136
ッキー	-11.1137
べ	-11.114
▁焦	-11.1142
▁トリ	-11.1142
▁ボート	-11.1143
▁ベイ	-11.1144
▁)-	-11.1154
▁獣	-11.1155
▁ブリッジ	-11.1157
▁乃	-11.1159
▁マルチ	-11.116
no	-11.1163
▁ヘッド	-11.1171
▁サンタ	-11.1177
▁辰	-11.1184
▁マコ	-11.1185
▁なん	-11.1189
▁まる	-11.1195
▁思い出	-11.1196
刀	-11.1199
励	-11.12
▁込	-11.1204
▁煙	-11.1205
皮	-11.1209
軸	-11.1209
遠	-11.121
▁せん	-11.121
▁全面	-11.1213
▁飯	-11.122
ハイ	-11.1221
スクール	-11.1226
▁リス	-11.1228
トゥ	-11.1233
ーダー	-11.1247
セル	-11.1249
▁ファ	-11.1258
▁昭	-11.1259
▁押し	-11.1277
タイム	-11.1279
β	-11.1281
−	-11.1281
▁アディロンダック	-11.1281
▁ウラジーミル	-11.1281
盾	-11.1281
窟	-11.1281
▁オメガ	-11.1281
▁原子	-11.1281
▁消防	-11.1282
▁ソニー	-11.1283
▁フィギュア	-11.1285
▁放射	-11.1285
▁エッセイ	-11.1285
▁むし	-11.1288
▁もち	-11.1288
▁面白	-11.129
▁碧	-11.1292
▁ボブ	-11.1292
▁free	-11.1298
▁68	-11.1302
▁チャレンジ	-11.1303
▁小倉	-11.1305
▁競馬	-11.1311
▁外務	-11.1312
▁ボン	-11.132
ステラー	-11.1325
▁石原	-11.1325
▁徴	-11.1332
▁聞か	-11.1333
だ	-11.1333
チオ	-11.1341
▁ジャンプ	-11.1346
▁乗組	-11.136
▁寒	-11.136
▁悩	-11.137
▁旅客	-11.1393
▁man	-11.1394
▁89	-11.1405
▁pr	-11.1426
ーナ	-11.1429
斗	-11.1432
境	-11.1435
医	-11.1436
才	-11.1438
▁カス	-11.1438
卵	-11.144
+	-11.1441
博	-11.1442
fish	-11.1444
▁ウィン	-11.1466
▁82	-11.1472
▁絞	-11.1496
▁%)	-11.1496
やし	-11.1499
▁慰	-11.1502
▁フォワード	-11.1508
▁たとえ	-11.1508
▁旋	-11.1508
▁北九州	-11.1509
▁なくな	-11.1509
▁噴	-11.1511
▁桂	-11.1512
▁秦	-11.1512
なわ	-11.1513
ベット	-11.1517
▁吹き	-11.1518
▁鴨	-11.1519
▁工学	-11.1519
▁相模	-11.152
▁キック	-11.1521
▁描き	-11.1527
▁近江	-11.1529
▁灰	-11.1533
▁ブック	-11.1534
▁立法	-11.1535
▁スノー	-11.1535
▁ポスト	-11.1536
▁伸ば	-11.1536
▁アート	-11.1539
▁猪	-11.154
▁トーマス	-11.154
▁受験	-11.1541
▁置き	-11.1545
▁葬	-11.1545
▁兆	-11.1547
▁ファイナル	-11.1549
スタン	-11.1551
▁栗	-11.1552
▁モー	-11.1553
▁亀	-11.1556
▁ペース	-11.156
▁フォーリー	-11.1563
▁トニー	-11.1564
▁スリー	-11.1566
▁珠	-11.1568
▁シン	-11.1568
▁えん	-11.157
たび	-11.1572
▁ジン	-11.1573
▁77	-11.1577
バス	-11.1579
▁嗣	-11.1583
しょ	-11.1585
▁日光	-11.1587
▁鎖	-11.1598
▁こな	-11.1602
▁ビーチ	-11.1606
▁ブルック	-11.161
▁粉	-11.1611
▁93	-11.1616
▁結び	-11.1622
▁はや	-11.1628
▁ひら	-11.1638
▁迷	-11.1641
ろう	-11.1644
▁わた	-11.1647
っぱ	-11.1647
エト	-11.1656
テン	-11.1658
バイ	-11.1663
トサウルス	-11.1672
▁踏	-11.1674
ビデオ	-11.1679
▁サル	-11.168
提	-11.1681
ザー	-11.1681
損	-11.1681
▁壊	-11.1684
アジア	-11.1685
▁あか	-11.1687
▁sp	-11.1694
▁蹴	-11.17
リスク	-11.1713
ヴィル	-11.1728
▁ヴィ	-11.1729
▁醸	-11.1733
▁ウェイ	-11.1734
▁イデア	-11.1738
500	-11.174
▁いろ	-11.1741
スケネクタディ	-11.1741
’	-11.1741
▁恐怖	-11.1741
朴	-11.1741
董	-11.1741
ニューアル	-11.1741
▁best	-11.1742
▁和歌山	-11.1743
▁踊り	-11.1745
▁不満	-11.1745
▁ニュージ	-11.1747
▁ウッド	-11.1748
プール	-11.1749
▁術	-11.1752
▁リミックス	-11.1753
▁消え	-11.1753
▁ブエ	-11.1755
▁ドラゴン	-11.1759
えも	-11.176
▁フットサル	-11.1766
グル	-11.1768
▁流通	-11.177
▁フェイス	-11.1774
▁セル	-11.1779
▁偏	-11.1781
▁ロックバンド	-11.1782
▁髪	-11.1785
アワード	-11.1788
ルダム	-11.179
▁96	-11.1798
▁弟子	-11.18
▁併せ	-11.1806
▁八幡	-11.181
ヌス	-11.1823
▁上級	-11.1828
壇	-11.1829
▁平野	-11.1833
しも	-11.1833
かの	-11.1833
▁紀	-11.1833
▁セントラル	-11.1839
女子大学	-11.1843
▁向き	-11.1853
▁外れ	-11.1861
▁埋め	-11.1862
▁サム	-11.1864
▁打ち切	-11.1871
man	-11.1874
work	-11.1888
07	-11.1888
007	-11.1892
▁ミリ	-11.1897
▁マー	-11.1905
▁参議	-11.1906
▁グッ	-11.1907
▁ブレーキ	-11.1909
▁理学	-11.191
▁たま	-11.1913
巻	-11.1913
妙	-11.1914
並	-11.1914
レコード	-11.1914
商	-11.1916
▁こく	-11.1917
▁テスト	-11.1918
尻	-11.1919
彩	-11.192
▁涼	-11.1921
犬	-11.1922
ほど	-11.193
ニコ	-11.1936
▁折	-11.1936
▁プル	-11.1959
▁コネチカット	-11.1979
▁取り扱	-11.1979
麓	-11.1979
▁エドガー	-11.1979
▁キエフ	-11.1979
▁引き分け	-11.1979
▁余儀	-11.1979
roid	-11.198
▁ふじ	-11.198
▁スケッチ	-11.1983
▁東武	-11.1984
▁セネ	-11.1985
▁魔法	-11.1988
▁商工	-11.1989
▁遅	-11.1994
▁尽く	-11.1995
▁巻き込	-11.1997
▁",	-11.1999
▁あの	-11.2007
▁虚	-11.2012
▁おこな	-11.2013
▁カフェ	-11.2014
▁ポップ	-11.202
▁ホル	-11.2022
▁モバイル	-11.2024
▁卓	-11.2027
▁79	-11.203
▁見な	-11.2032
▁規則	-11.2033
▁西川	-11.2033
▁アイテ	-11.2042
ティナ	-11.205
▁ミュン	-11.2062
ジン	-11.2074
▁アンド	-11.2074
▁ロゴ	-11.2089
▁113	-11.2093
▁遂	-11.2094
ステート	-11.2095
▁aa	-11.2098
▁溶	-11.2099
ガー	-11.2107
▁駒	-11.2116
ジー	-11.212
72	-11.2121
▁クレ	-11.2125
雇	-11.2128
28	-11.2131
▁とり	-11.2132
▁アメ	-11.2134
晶	-11.2156
徴	-11.2161
▁下げ	-11.2161
▁トライ	-11.2165
▁blue	-11.2166
銀	-11.2167
マル	-11.2168
▁ウィル	-11.217
痛	-11.217
▁峰	-11.2171
バレー	-11.2171
審	-11.2171
固	-11.2173
禁	-11.2174
▁切れ	-11.2175
▁おく	-11.2202
▁押	-11.2203
66	-11.2209
▁ベッド	-11.2221
etag	-11.2222
▁アーカンソー	-11.2223
▁憧れ	-11.2223
痘	-11.2223
▁パチンコ	-11.2223
▁モジュラ	-11.2223
▁シナリオ	-11.2223
▁望遠	-11.2223
▁稲荷	-11.2224
イスラエル	-11.2224
▁考古	-11.2224
▁アルスター	-11.2226
▁何ら	-11.2226
▁位置づけ	-11.2226
▁同志社	-11.2226
▁疾	-11.2226
金融	-11.2227
▁瑞	-11.2227
▁祈	-11.2227
▁稚	-11.2227
▁!!	-11.2227
▁土浦	-11.2227
▁ソビ	-11.2228
ナレーション	-11.2229
▁横断	-11.2229
▁スパイ	-11.2229
▁浴び	-11.2233
▁ジェネレーション	-11.2234
ベ	-11.2236
▁フランク	-11.2236
イヤー	-11.224
▁バロン	-11.2242
▁ウィ	-11.2243
▁セイ	-11.2245
▁キ	-11.2248
▁マックス	-11.225
da	-11.2251
フォード	-11.2251
アルコール	-11.2252
スペクトル	-11.2255
▁ホスホ	-11.2256
▁111	-11.226
▁ジュ	-11.226
▁ショート	-11.2263
▁84	-11.2274
ペ	-11.2278
▁キム	-11.2278
▁無事	-11.2279
返	-11.2279
▁群れ	-11.2284
リム	-11.2286
っくり	-11.2286
▁取れ	-11.2293
裁判	-11.2294
▁ドー	-11.2302
▁サマー	-11.2308
▁衰	-11.231
▁傷	-11.2313
▁リトル	-11.2316
▁des	-11.2317
ぐち	-11.2318
▁文部	-11.232
▁ふる	-11.2321
▁スカイ	-11.2327
▁トロ	-11.2347
▁fi	-11.2351
ッシュ	-11.2356
協同	-11.2358
▁後ろ	-11.2364
つけ	-11.2368
コプ	-11.2372
▁持ち込	-11.2387
▁オート	-11.2389
嶋	-11.2396
▁81	-11.24
烈	-11.24
▁コル	-11.24
▁あま	-11.2404
ちょう	-11.2411
▁終わら	-11.2418
跳	-11.242
奨	-11.2424
偵	-11.2424
▁gt	-11.2425
髪	-11.2425
▁移り	-11.2426
カレッジ	-11.2427
順	-11.2431
▁掃	-11.2434
▁イェー	-11.2435
トシ	-11.2443
▁eh	-11.245
▁プラン	-11.2456
▁払	-11.2456
▁ディアルガ	-11.2473
粋	-11.2473
裔	-11.2473
▁置き換え	-11.2473
▁ダグ	-11.2474
▁ゆえ	-11.2475
▁講談	-11.2475
▁スク	-11.2476
▁トリノ	-11.2477
▁プラットフォーム	-11.2477
▁取り付け	-11.2477
▁賭け	-11.2478
▁鹿島	-11.248
カユ	-11.2483
▁チェック	-11.2485
▁吉野	-11.2492
▁ブー	-11.2494
▁江川	-11.2499
わり	-11.2499
▁交響	-11.25
▁サンデー	-11.25
▁セキュリティ	-11.25
フォーム	-11.2501
▁三角	-11.2505
▁ww	-11.2506
▁研	-11.2507
▁hydro	-11.2518
▁鳴	-11.2519
▁蓮	-11.2523
▁構え	-11.2524
▁隠し	-11.2526
ムステ	-11.253
▁杏	-11.2531
▁正し	-11.254
▁止ま	-11.2547
▁ディスク	-11.2548
▁敢	-11.2555
▁邪	-11.2555
▁追い込	-11.2557
▁116	-11.2558
グラム	-11.2575
ビ	-11.2578
ポ	-11.2584
▁ネタ	-11.259
▁ろ	-11.2594
▁行進	-11.26
▁トレ	-11.2615
▁ex	-11.2615
▁殺し	-11.2624
▁菌	-11.2626
笑い	-11.2629
▁09	-11.263
kb	-11.2633
ルズ	-11.2653
▁83	-11.2656
▁173	-11.2661
羽	-11.2669
▁互	-11.2669
▁潮	-11.2682
ヴィ	-11.2682
ゲンゴロウモドキ	-11.2684
参	-11.2688
智	-11.2688
▁泳	-11.269
衣	-11.2693
▁かた	-11.2693
漢	-11.2693
▁無人	-11.2695
27	-11.2701
▁ゲル	-11.2715
生活	-11.2723
▁戒	-11.2724
▁ギタリスト	-11.2729
▁シンフォギア	-11.2729
▁チャールストン	-11.2729
▁水曜	-11.2729
篇	-11.2729
醒	-11.2729
骸	-11.2729
コーポレーション	-11.2729
▁デヴィッド	-11.2729
▁佐伯	-11.2729
▁高円寺	-11.2729
▁フィンランド	-11.273
▁耐え	-11.273
テインメント	-11.273
▁妨	-11.2734
▁コントロール	-11.2734
▁黄金	-11.2734
▁カルメン	-11.2734
▁屋根	-11.2736
ーザー	-11.2737
▁ボディ	-11.2738
▁もらえ	-11.274
プレイ	-11.2741
たり	-11.2741
▁アドバン	-11.2742
▁ピンク	-11.2742
▁いた	-11.2743
▁ハーフ	-11.2744
▁高田	-11.2746
▁小松	-11.2746
▁遥	-11.2749
▁ダグラス	-11.275
▁レンタル	-11.2751
▁pa	-11.2752
▁ボイス	-11.2752
▁チャンピオンズ	-11.2756
▁隅	-11.2765
▁du	-11.2769
▁クロス	-11.277
カーソン	-11.2773
age	-11.2778
▁近づ	-11.2779
▁翅	-11.2781
ライ	-11.2782
▁ボード	-11.2784
▁河内	-11.2784
▁ベラ	-11.2796
ピ	-11.2796
ウィン	-11.2799
92	-11.2803
▁遊び	-11.2806
パー	-11.2811
side	-11.2818
▁日野	-11.2819
▁気付	-11.2826
▁巣	-11.2837
95	-11.2839
▁グ	-11.284
▁カルテル	-11.2846
▁大野	-11.285
エル	-11.286
▁ゲット	-11.2861
42	-11.2867
▁コロ	-11.2878
rna	-11.2884
▁みや	-11.2887
▁トム	-11.2891
▁time	-11.2893
レンジャー	-11.2917
91	-11.2918
▁也	-11.2919
▁ホー	-11.2921
▁gp	-11.2921
▁122	-11.2933
▁ベルギ	-11.2933
▁指し	-11.2933
時間	-11.2938
▁カウント	-11.2939
way	-11.2941
▁キース	-11.295
▁ランデ	-11.295
▁留	-11.2953
アメリカ	-11.2955
遊	-11.2958
握	-11.2958
盗	-11.2961
券	-11.2962
削	-11.2962
軽	-11.2962
腹	-11.2962
爆	-11.2964
般	-11.2979
▁接す	-11.298
▁01	-11.2986
《	-11.2992
》	-11.2992
【	-11.2992
】	-11.2992
牙	-11.2992
茎	-11.2992
▁アーマードライダー	-11.2992
▁イスラム	-11.2993
ローレンス	-11.2994
▁アラブ	-11.2994
イジャン	-11.2994
see	-11.3
▁売り	-11.3004
▁フリードリヒ	-11.3005
▁リゾート	-11.3005
▁オペラ	-11.3005
▁握	-11.3006
▁悠	-11.3007
▁池田	-11.3009
▁律	-11.3011
▁辻	-11.3013
▁もつ	-11.3014
▁泥	-11.3021
ターン	-11.3022
▁エディ	-11.3022
ジア	-11.3026
ence	-11.3028
▁蓄	-11.3029
▁芽	-11.3029
ールズ	-11.303
▁文明	-11.3038
▁みち	-11.3042
▁偵	-11.3044
▁差し	-11.3045
▁ip	-11.3045
▁クルー	-11.3046
▁班	-11.3054
▁アセチル	-11.3054
▁ad	-11.3061
▁逸	-11.3071
▁組み込	-11.3071
ズミ	-11.3072
▁デオキシ	-11.3073
▁タン	-11.3077
▁柱	-11.3079
▁プロテ	-11.3084
ine	-11.3091
▁アルセ	-11.3093
シニア	-11.3097
▁琴	-11.3104
ディング	-11.3108
▁とう	-11.311
▁帳	-11.3112
▁as	-11.3116
▁鋭	-11.312
ンガ	-11.3121
▁ウェブ	-11.3125
▁コア	-11.3133
pv	-11.3144
▁ロッテ	-11.3148
▁コーラ	-11.315
トヴィ	-11.3162
レール	-11.3164
通り	-11.3168
リーガ	-11.3174
k	-11.3182
▁飛び	-11.3183
ファ	-11.3185
▁タカ	-11.3188
ベニア	-11.3201
▁武道	-11.3213
▁紋	-11.3221
クォーク	-11.3227
▁輸出	-11.323
▁ハル	-11.3232
▁眠	-11.3236
郡	-11.3237
▁該	-11.3238
ra	-11.3239
隆	-11.324
麻	-11.324
剣	-11.3241
停	-11.3242
▁ラム	-11.3242
▁縮	-11.3253
▁シリア	-11.3255
槽	-11.3263
▁引き起こ	-11.3263
▁取り戻	-11.3263
▁キーボード	-11.3263
大韓民国	-11.3263
▁スキャン	-11.3264
▁封じ	-11.3264
▁トレード	-11.3264
▁浜松	-11.3264
▁ふく	-11.3264
パック	-11.3264
▁window	-11.3265
▁喧	-11.3267
▁ヘンリー	-11.3268
▁につれ	-11.3269
ナイト	-11.3269
▁メカ	-11.3271
▁リーフ	-11.3273
▁エンター	-11.3275
▁ヴァイオリ	-11.3276
▁トレントン	-11.3276
▁近衛	-11.3278
▁届け	-11.3284
▁メアリー	-11.3284
アパート	-11.3284
▁緒	-11.3288
スク	-11.3289
燃料	-11.329
急行	-11.3294
▁第一	-11.3299
▁下り	-11.3308
▁ゅう	-11.3309
▁ミッション	-11.3309
▁レッス	-11.331
▁釣り	-11.3311
▁奨	-11.3312
シング	-11.3314
▁医薬	-11.3315
▁守り	-11.3325
▁変わり	-11.3333
▁靴	-11.3334
▁孔	-11.3334
▁セミ	-11.3338
▁均	-11.3339
▁柴	-11.3341
▁蘭	-11.3343
▁コマンド	-11.3343
▁大手	-11.335
▁ホスファ	-11.3352
ノヒ	-11.3355
▁アブ	-11.3356
オファー	-11.3358
▁ミキ	-11.3359
▁ダイ	-11.336
▁140	-11.336
▁ブロードウェイ	-11.336
▁04	-11.3374
▁みた	-11.338
▁cr	-11.338
é	-11.3385
▁墜	-11.3386
ケン	-11.3393
マウス	-11.3396
▁be	-11.3408
▁気づ	-11.3412
ジャ	-11.3414
te	-11.3415
▁ガリ	-11.3429
ッシング	-11.3431
▁レスラー	-11.3432
ミュージック	-11.3432
▁サビ	-11.3441
▁do	-11.3442
▁悟	-11.3446
▁従っ	-11.3449
アルファサ	-11.3455
▁送り	-11.3457
のち	-11.3466
賃	-11.348
▁凍	-11.3483
テル	-11.3487
フィールド	-11.3487
na	-11.3492
▁pop	-11.3499
欲	-11.3504
▁nex	-11.3507
▁イリ	-11.3507
▁閣	-11.3511
▁ma	-11.3511
漠	-11.3511
しこ	-11.3514
▁談	-11.3517
羅	-11.3517
▁gb	-11.3518
▁東大	-11.352
棒	-11.3525
患	-11.3525
life	-11.3526
旗	-11.3527
龍	-11.3527
ッケー	-11.3535
▁マサチューセッツ	-11.354
俺	-11.354
坦	-11.354
嶺	-11.354
悼	-11.354
▁エイベックス	-11.354
▁バルセロナ	-11.354
ゼルバ	-11.3541
▁ジョニー	-11.3541
▁アンパン	-11.3541
▁ハドロ	-11.3541
▁sail	-11.3541
▁オスカー	-11.3542
▁近畿	-11.3542
▁作り上げ	-11.3543
セット	-11.3543
▁ハッ	-11.3543
テクノロジー	-11.3543
▁element	-11.3545
▁検察	-11.3546
wimp	-11.3547
▁欲し	-11.3547
ンズ	-11.3548
▁山陽	-11.3553
▁さくら	-11.3553
▁桁	-11.3554
▁ファンタジー	-11.3554
▁コンクール	-11.3554
シード	-11.3559
▁理想	-11.3561
ッジ	-11.3562
▁開け	-11.3564
▁培	-11.3564
▁東南	-11.3564
▁マスク	-11.3565
メイン	-11.3569
▁桑	-11.3571
▁fb	-11.3576
▁げん	-11.3581
▁アダム	-11.3581
▁隔	-11.3584
トリクス	-11.3586
▁妙	-11.3592
がし	-11.3595
▁平原	-11.36
▁ガーデン	-11.3606
ライター	-11.3616
リラ	-11.3629
▁バット	-11.3631
▁トウ	-11.3638
▁ギラ	-11.364
▁パット	-11.3642
▁シノ	-11.3646
▁等し	-11.3647
▁03	-11.3659
▁きれ	-11.3663
▁けい	-11.367
』(	-11.3674
▁嵐	-11.3676
▁還	-11.3678
▁92	-11.3683
▁ゼノ	-11.3688
だし	-11.3689
ビジョン	-11.3692
入り	-11.3692
チア	-11.3694
▁レフェリ	-11.3705
ルノー	-11.3711
▁ローズ	-11.373
ii	-11.373
▁コンテ	-11.3738
▁くり	-11.3739
▁jun	-11.3741
ツー	-11.3743
▁au	-11.3753
▁box	-11.3755
▁酷	-11.3765
▁換	-11.3773
▁先立	-11.3782
▁吾	-11.3782
npo	-11.3791
▁is	-11.3791
▁語り	-11.3799
ジャパン	-11.3802
ご	-11.3803
▁プロモー	-11.381
ウッド	-11.3811
筋	-11.3815
▁ゅ	-11.3815
眼	-11.3817
堅	-11.3818
▁オーシャン	-11.3818
チャ	-11.3818
ドーム	-11.3819
適	-11.3819
邸	-11.382
▁小山	-11.382
壁	-11.3821
▁悲	-11.3824
▁sh	-11.3826
▁静岡県立大学	-11.3826
曰	-11.3826
畜	-11.3826
▁black	-11.3826
▁素晴らし	-11.3826
▁ティ	-11.3826
▁荏原	-11.3827
board	-11.3827
銀行	-11.3827
▁阿佐	-11.3827
▁氷河	-11.3828
▁アラ	-11.3829
▁song	-11.3829
▁アーサー	-11.3829
▁あくまで	-11.383
▁邑	-11.383
▁及ぼ	-11.383
▁マンガ	-11.3831
▁欄	-11.3831
▁ストローク	-11.3831
▁東北新	-11.3831
▁秘書	-11.3832
▁透	-11.3834
▁相次	-11.3835
▁筋	-11.3837
▁カタル	-11.3837
▁義務	-11.3837
▁怒り	-11.3837
ンス	-11.3838
▁バラン	-11.3841
▁スカイラー	-11.3842
アリゲ	-11.3843
▁念	-11.3845
unes	-11.3846
パイク	-11.3847
▁プレス	-11.3848
グレード	-11.3849
▁上手	-11.3849
▁プリ	-11.3853
▁フォーク	-11.3854
サイド	-11.3855
▁スティーヴン	-11.3857
▁悲し	-11.386
mi	-11.386
▁マスター	-11.386
▁詳し	-11.3861
▁フィリップス	-11.3863
ジェ	-11.3865
▁劣	-11.3866
▁モノクロ	-11.3871
レイ	-11.3872
▁ガイド	-11.3873
▁カラス	-11.3874
▁シャープ	-11.3878
▁尽	-11.3887
▁バックス	-11.3893
▁顎	-11.3893
ホー	-11.3895
▁そば	-11.39
▁ローン	-11.39
イニー	-11.3901
▁phosphat	-11.3911
▁stor	-11.3919
▁ノイ	-11.3937
▁73	-11.394
▁98	-11.3941
▁本能	-11.3943
▁メチル	-11.3951
ダンス	-11.3951
▁雷	-11.3956
シル	-11.3965
▁歌合	-11.397
▁郭	-11.3975
▁モール	-11.3982
▁sc	-11.3983
▁ケイ	-11.3985
透	-11.3993
▁イエ	-11.4001
▁]	-11.401
▁テレ	-11.4016
▁まい	-11.4024
▁いま	-11.4024
▁ワーク	-11.4033
▁900	-11.404
▁会計	-11.4042
▁エリ	-11.4045
06	-11.4053
▁レオン	-11.4054
▁105	-11.4062
▁やめ	-11.4063
96	-11.4067
ly	-11.4071
▁202	-11.4076
▁サーバ	-11.4078
ラウ	-11.4082
▁ピン	-11.4084
▁ボロ	-11.4089
ドール	-11.4095
ma	-11.4104
黒	-11.4111
銭	-11.4118
▁太平	-11.4119
旋	-11.412
▁ハインリヒ	-11.412
▁摩擦	-11.412
▁火曜	-11.412
措	-11.412
汰	-11.412
▁ハミルトン	-11.412
▁笛吹	-11.412
▁バナナ	-11.412
▁ハードウェア	-11.412
▁バンダイ	-11.4121
▁チケット	-11.4121
▁釈	-11.4121
従	-11.4122
褐	-11.4122
▁銭	-11.4122
▁閉じ	-11.4122
快	-11.4123
貴	-11.4124
×	-11.4124
オープン	-11.4125
維	-11.4125
▁クレー	-11.4125
▁クリストファー	-11.4126
ちゃん	-11.4126
▁ダイヤ	-11.4126
▁西川田	-11.4129
▁海峡	-11.4134
▁ディーゼル	-11.4135
▁テクノ	-11.4135
ーセント	-11.4139
▁隠れ	-11.4143
▁篤	-11.4143
▁実践	-11.4143
▁グラフィック	-11.415
▁壮	-11.4153
▁ester	-11.4156
かも	-11.4157
▁狂	-11.4159
▁ヴ	-11.4161
▁添	-11.4164
ウェル	-11.4165
▁辛	-11.4169
▁キャンパス	-11.4172
▁フェザ	-11.4184
▁西村	-11.4188
▁三井	-11.4188
pg	-11.4189
▁フランクリン	-11.419
re	-11.4191
▁飾り	-11.4195
▁ケベ	-11.4201
ヒル	-11.4201
ンボ	-11.4203
▁あわせ	-11.4208
ドゥ	-11.4216
バル	-11.4218
▁ポロ	-11.4221
造船	-11.4222
とっ	-11.4226
当たっ	-11.4233
ベイ	-11.4234
文芸	-11.4234
▁四国	-11.4236
ミックス	-11.4241
フォー	-11.4245
キル	-11.4253
▁カウン	-11.4253
▁亡	-11.4253
▁軟	-11.4265
▁小野	-11.4273
ac	-11.4282
▁101	-11.4282
▁貝	-11.4283
▁じん	-11.4283
▁句	-11.4284
▁チャン	-11.429
▁08	-11.429
ハイム	-11.4293
▁ネオ	-11.4294
▁71	-11.4317
スティング	-11.4317
▁ジュー	-11.4327
▁166	-11.4336
▁ch	-11.4359
▁裂	-11.4363
▁02	-11.4364
▁ゴル	-11.4374
バンク	-11.4377
▁john	-11.438
▁le	-11.438
▁いし	-11.439
トリ	-11.4391
雀	-11.4398
▁ひか	-11.4404
合わせ	-11.4405
▁グレン	-11.4406
▁ヒト	-11.4409
▁ザク	-11.4412
▁タマ	-11.4414
ウィリアムズ	-11.4414
▁なき	-11.4414
▁メル	-11.4417
レフ	-11.4418
▁三つ	-11.4419
▁タイムズ	-11.4419
▁シンオウ	-11.4423
▁ジェネシー	-11.4423
▁ストラトフォード	-11.4423
▁パソコン	-11.4423
紘	-11.4423
舶	-11.4423
▁ムスチスラフ	-11.4423
▁スポンサー	-11.4423
揚げ	-11.4424
フロンティア	-11.4424
▁季節	-11.4424
▁リビング	-11.4424
如	-11.4424
▁見舞	-11.4426
オーケストラ	-11.4426
▁間違	-11.4427
▁河北	-11.4427
▁ワーム	-11.4428
眠	-11.4428
▁凱	-11.4429
▁履	-11.4429
▁斑	-11.4429
サークル	-11.4429
▁ポプ	-11.4429
罰	-11.443
亜	-11.4433
署	-11.4436
廃	-11.4436
憲	-11.4437
▁揃	-11.4437
杉	-11.4437
五	-11.4437
つも	-11.4438
▁憎	-11.4438
ソード	-11.4441
▁十字	-11.4441
▁どれ	-11.4443
▁辞め	-11.4444
▁ワイン	-11.4445
▁酒造	-11.4445
▁ビーム	-11.4446
ツール	-11.4446
▁公益	-11.4448
ロイト	-11.445
29	-11.4451
▁咲	-11.4453
▁awa	-11.4453
キン	-11.4456
シャ	-11.4457
▁オレ	-11.4461
▁田舎	-11.447
シュネ	-11.4471
▁ニッポン	-11.4476
▁都道	-11.4478
▁ds	-11.448
▁空中	-11.4484
▁グラフ	-11.4485
▁ヤング	-11.4487
ガールズ	-11.4492
▁ピカ	-11.4495
ポート	-11.4502
▁ミラー	-11.4502
▁フェ	-11.4503
▁別れ	-11.4507
ページ	-11.4509
▁無理	-11.451
▁カタ	-11.4512
▁著し	-11.4514
▁あん	-11.4517
▁hp	-11.4517
▁垂	-11.4519
▁1891	-11.4533
▁買い	-11.4548
▁)(	-11.4559
ーゼル	-11.4571
▁乳	-11.4571
ワン	-11.4574
▁願い	-11.4574
▁et	-11.4576
ヴィア	-11.4577
コーチ	-11.458
▁イラストレータ	-11.4584
▁シェ	-11.459
▁158	-11.4606
▁iv	-11.4612
▁川上	-11.4613
ies	-11.4618
学園	-11.4625
ネン	-11.4625
▁ファイア	-11.4632
ヴィチ	-11.4637
▁労	-11.4643
カス	-11.4644
ーベン	-11.4652
▁グラン	-11.4653
▁結びつ	-11.4659
▁アラン	-11.4664
ーカー	-11.4669
マイ	-11.4672
▁替え	-11.4676
▁ヘイ	-11.4676
イオ	-11.468
dp	-11.4684
▁愛し	-11.4688
▁うる	-11.4691
▁vo	-11.4695
▁譜	-11.4699
ーヌ	-11.4701
▁舎	-11.4703
▁輔	-11.4709
▁やって	-11.4723
ピール	-11.4724
ブール	-11.4728
▁164	-11.4729
▁ジャイアン	-11.4732
ピング	-11.4735
▁ユニバーシア	-11.4736
嘩	-11.4736
▁サスケハナ	-11.4736
▁アミノ	-11.4736
▁識別	-11.4736
▁アッパー	-11.4737
▁トーア	-11.4738
▁紀元	-11.4738
▁シリアル	-11.4741
▁搬	-11.4741
▁ブリティッシュ	-11.4741
仁	-11.4742
78	-11.4742
忌	-11.4742
▁久光	-11.4744
▁きゅう	-11.4745
チャンス	-11.4747
▁ミャ	-11.4748
▁相対	-11.4751
▁肖	-11.4751
▁チエ	-11.4753
▁スチュー	-11.4754
▁大久保	-11.4755
▁拾	-11.4755
▁ホラー	-11.4756
ヒトデ	-11.4757
充	-11.4758
肉	-11.4758
牧	-11.4758
▁ウェスト	-11.4758
カメラ	-11.4759
裕	-11.4759
旧	-11.476
豊	-11.476
スポーツ	-11.4762
▁ツイン	-11.4765
▁細か	-11.4766
ころが	-11.4767
▁掘	-11.4767
▁rd	-11.4774
▁ジェイ	-11.4778
▁ブレイク	-11.4779
▁イオン	-11.4782
▁たけ	-11.4785
▁グラウンド	-11.479
立ち	-11.4794
▁マット	-11.4794
▁フック	-11.4795
▁かね	-11.4799
▁童	-11.48
▁ラップ	-11.48
▁ビート	-11.4802
リット	-11.4809
▁舟	-11.4809
80	-11.4813
▁想い	-11.4817
▁ウォー	-11.4817
▁オン	-11.4818
▁行え	-11.482
▁河合	-11.4822
▁ライカ	-11.4824
▁us	-11.4829
ジョン	-11.4831
▁吐	-11.4834
カル	-11.4839
▁巻き	-11.4841
▁ヤン	-11.4842
タス	-11.4844
ンマー	-11.4847
わけ	-11.4851
バック	-11.4863
▁蘇	-11.4869
トリック	-11.4872
▁コム	-11.4875
▁に当た	-11.4876
▁りょう	-11.4882
▁コー	-11.4882
▁coco	-11.4885
▁フィ	-11.4888
▁えい	-11.4889
▁松山	-11.4893
ルヌ	-11.4899
▁フォ	-11.49
▁ばら	-11.4915
et	-11.4919
▁震	-11.4934
ネス	-11.4939
▁虐	-11.4939
リーベル	-11.4946
ヨン	-11.4951
ーラ	-11.4961
▁フジ	-11.4983
▁出向	-11.4989
ナル	-11.5003
プテン	-11.5003
ミン	-11.5007
ダイ	-11.501
▁初年	-11.5016
▁ハンド	-11.5017
ファン	-11.5018
▁時に	-11.5019
クア	-11.5021
▁手伝	-11.5028
ぷい	-11.5034
▁歌わ	-11.5036
ギア	-11.504
▁トゥ	-11.5044
▁we	-11.5044
▁ちゃ	-11.5049
▁罰	-11.5051
top	-11.5053
縛	-11.5054
ディア	-11.5054
▁run	-11.5055
▁小名	-11.5057
▁アダルト	-11.5058
▁ガソリン	-11.5058
堺	-11.5058
▁ジェファーソン	-11.5058
▁ボランティア	-11.5058
▁what	-11.5058
▁管弦	-11.5059
▁サラトガ	-11.5059
▁phospho	-11.5059
▁灯台	-11.506
▁広範	-11.506
▁根拠	-11.506
▁友好	-11.5061
レーデ	-11.5062
▁仕上げ	-11.5063
▁♀	-11.5064
▁ドッキング	-11.5064
▁グレゴリー	-11.5065
▁ホセ	-11.5065
▁チェンバ	-11.5066
▁ロケ	-11.5067
▁エリート	-11.5069
▁ステ	-11.507
▁胡	-11.5074
▁鍾	-11.5074
▁ボウリング	-11.5074
97	-11.5076
▁八木	-11.5076
ゼン	-11.5077
ごく	-11.5079
▁読売	-11.508
▁由紀	-11.5081
リッジ	-11.5082
▁狼	-11.5084
フレーズ	-11.5086
焼	-11.5086
▁繰り出	-11.5086
輔	-11.5086
該	-11.5088
功	-11.5088
違	-11.5088
▁最小	-11.5089
昭	-11.5089
朗	-11.5089
動車	-11.5089
炎	-11.5091
比	-11.5091
寿	-11.5092
▁大森	-11.5092
ゆき	-11.5092
ドイツ	-11.5093
▁ラグビー	-11.5094
▁みつ	-11.5098
▁night	-11.5104
▁妄	-11.5104
▁カメ	-11.5106
▁ジャーナリ	-11.5109
ノール	-11.5111
▁タイヤ	-11.5118
▁誓	-11.5124
▁ns	-11.5132
▁ガイ	-11.5138
▁量子	-11.514
94	-11.5142
55	-11.5144
▁シャッター	-11.5145
シオン	-11.5145
▁オハ	-11.5146
▁かみ	-11.5151
▁テック	-11.5153
▁テープ	-11.5154
▁サーキット	-11.5155
石油	-11.5167
▁ウォーター	-11.5172
ティア	-11.5174
▁公会	-11.5179
▁スプリング	-11.5186
▁オバ	-11.5188
どか	-11.5194
our	-11.5195
▁退け	-11.5199
▁コロニ	-11.52
▁ウォーク	-11.5206
モア	-11.5213
▁浮か	-11.5219
▁馬場	-11.5235
▁一人	-11.5239
デリー	-11.5256
▁169	-11.5257
or	-11.5258
▁遷	-11.5258
▁減ら	-11.5258
▁156	-11.526
▁ヤンキー	-11.5276
▁マリオ	-11.5292
▁ソース	-11.5296
▁タンク	-11.5297
▁なが	-11.5297
▁scr	-11.532
がっ	-11.5325
ぜ	-11.5332
▁シュー	-11.5335
▁94	-11.5348
ツク	-11.5352
▁熟	-11.5353
ブック	-11.536
▁フレーズ	-11.5365
ージュ	-11.5367
ーノ	-11.5369
ボロ	-11.5372
ポリス	-11.5375
よい	-11.5379
▁一気	-11.5385
▁ドゥ	-11.5385
メージ	-11.5388
アイランド	-11.5389
▁努め	-11.5392
楼	-11.5392
畔	-11.5392
閥	-11.5392
▁ウクライナ	-11.5392
▁album	-11.5392
▁追い詰め	-11.5392
▁スポット	-11.5392
▁nec	-11.5392
ターミナル	-11.5392
▁丹波	-11.5393
▁絵巻	-11.5393
▁打倒	-11.5394
潔	-11.5394
レーション	-11.5395
▁アレクサンドル	-11.5395
ゾーン	-11.5396
▁婦	-11.5396
▁供	-11.5397
▁是	-11.5398
▁芦	-11.5398
▁ダイエー	-11.5398
▁コラボ	-11.5399
▁インディーズ	-11.5399
▁プレミアム	-11.5401
23	-11.5405
撲	-11.5406
▁陶	-11.5408
▁取り込	-11.5408
▁ミゲル	-11.5408
▁売れ	-11.5409
▁メリー	-11.5411
▁ゴジ	-11.5411
▁エリー	-11.5411
▁146	-11.5413
▁glob	-11.5414
▁肉体	-11.5416
▁鳳	-11.5418
▁借	-11.542
▁火山	-11.5421
ヴィエ	-11.5421
『	-11.5421
▁浅間	-11.5424
▁dx	-11.5425
丈	-11.5429
▁バイオ	-11.5429
▁カルロス	-11.5429
袋	-11.5429
スタジアム	-11.5431
熟	-11.5431
デュ	-11.5431
譜	-11.5431
▁ノベル	-11.5432
▁ショック	-11.5432
増	-11.5435
輸	-11.5435
冊	-11.5435
脳	-11.5435
診	-11.5436
敬	-11.5436
次官	-11.5436
プロダクション	-11.5437
監	-11.5437
犯	-11.5438
サービス	-11.5438
奇	-11.5438
[	-11.544
▁宮内	-11.5444
▁ミュ	-11.5446
▁スケール	-11.5447
▁巨人	-11.5449
▁於	-11.5449
▁結論	-11.5452
▁川崎	-11.5453
(-	-11.5453
▁ac	-11.5458
▁ユナイテッド	-11.546
▁仙	-11.547
▁セックス	-11.5472
36	-11.5475
▁ゃ	-11.5486
▁細長	-11.5487
▁しげ	-11.5494
▁会津	-11.5512
工芸	-11.5519
▁ジョンソン	-11.5522
▁ジョ	-11.5523
▁鋼	-11.5523
カリ	-11.5527
▁ウェールズ	-11.5534
▁転校	-11.5534
さな	-11.5542
▁懐	-11.5543
▁ヌル	-11.557
イユ	-11.5571
プション	-11.5574
▁07	-11.5575
▁庄	-11.5584
▁託	-11.5585
▁駅前	-11.5587
キュー	-11.5591
▁162	-11.5602
▁慣	-11.5605
ガム	-11.5608
▁淵	-11.5615
▁モーター	-11.5644
▁猟	-11.5653
▁154	-11.5653
▁両国	-11.5656
▁うつ	-11.5658
▁ゼ	-11.5672
ファイター	-11.5673
田村	-11.5676
イレス	-11.5678
こう	-11.5682
▁マイナ	-11.5683
▁うし	-11.5689
▁not	-11.5696
エン	-11.5701
▁スペ	-11.5707
▁mer	-11.5708
09	-11.572
ラスカ	-11.5726
アドベンチャー	-11.5734
テーション	-11.5734
ネット	-11.5735
▁117	-11.5735
▁カラオケ	-11.5737
▁シンセサイザー	-11.5737
▁恐らく	-11.5737
棺	-11.5737
礁	-11.5737
箒	-11.5737
▁キネマ	-11.5737
▁ニョロ	-11.5737
▁マツダ	-11.5737
▁rgd	-11.5737
チョコレート	-11.5737
▁壬生	-11.5737
▁諦め	-11.5737
▁恵まれ	-11.5737
▁verb	-11.5737
▁徹底	-11.5737
▁show	-11.5738
▁コミュニケーション	-11.5739
▁皇太	-11.574
▁浦和	-11.574
▁ヤドン	-11.574
▁美奈	-11.5741
▁把	-11.5743
▁樟	-11.5743
▁ショッピング	-11.5743
▁ノックアウト	-11.5743
▁ロブ	-11.5744
▁わが	-11.5744
▁なで	-11.5745
▁二塁	-11.5745
▁タキ	-11.5745
▁news	-11.5745
ブルック	-11.5746
▁非公	-11.5747
▁纏	-11.5747
プラ	-11.5748
▁open	-11.575
▁控え	-11.5753
▁ラッシュ	-11.5756
▁赤井	-11.576
ジョ	-11.576
▁パシフィック	-11.5764
an	-11.5765
▁オットー	-11.5767
▁優勢	-11.5768
▁デト	-11.5769
▁先住	-11.577
▁函	-11.577
喚	-11.5771
残	-11.5772
▁知らせ	-11.5775
▁レンセリア	-11.5775
▁フルーツ	-11.5775
ッタ	-11.5776
磨	-11.5783
庭	-11.5783
不	-11.5785
<	-11.5786
ca	-11.5788
▁ポニー	-11.5789
吾	-11.5789
紋	-11.579
掃	-11.579
チェスター	-11.5791
ミランダ	-11.5791
イプ	-11.5792
▁付き合	-11.5792
―	-11.5793
暦	-11.5793
塔	-11.5794
俊	-11.5794
封	-11.5795
スタジオ	-11.5795
操	-11.5795
辞	-11.5795
逆	-11.5795
閉	-11.5795
▁袖	-11.5796
▁封切	-11.58
▁rock	-11.5801
▁みなさ	-11.5801
▁ハリー	-11.5805
32	-11.5807
▁マリン	-11.5813
atp	-11.5813
▁163	-11.5818
▁廻	-11.5818
▁代官	-11.5818
▁づく	-11.5819
▁day	-11.5827
▁ならび	-11.5828
009	-11.5828
ライナー	-11.5829
▁晃	-11.5829
ニム	-11.5829
bm	-11.5833
▁クール	-11.5836
ダム	-11.585
▁上下	-11.5851
ドッグ	-11.5851
打ち	-11.5858
▁願	-11.5868
ダウン	-11.5874
▁ワイ	-11.5882
ライブ	-11.5883
▁ボタ	-11.5889
ux	-11.5891
▁ビジュアル	-11.5899
▁ロマン	-11.5903
▁菜	-11.5906
▁成田	-11.5913
▁積み	-11.5916
エット	-11.5917
▁倫	-11.5928
▁岳	-11.5933
fl	-11.5946
35	-11.5952
ノム	-11.5953
▁カラン	-11.5962
▁ぐる	-11.5967
▁怒	-11.597
バラ	-11.598
▁薬学	-11.599
▁名所	-11.5995
64	-11.5996
▁公明	-11.6002
▁360	-11.6007
26	-11.601
▁サンド	-11.6012
ユ	-11.6019
40	-11.603
ヴァ	-11.6034
ザン	-11.6037
リカ	-11.6042
▁謙	-11.6049
▁剥	-11.6052
▁受け継	-11.6057
▁『""	-11.6058
▁ya	-11.6062
▁ランキン	-11.6075
組み	-11.6075
ave	-11.608
▁木曜	-11.6094
プエルトリ	-11.6094
ホウオウ	-11.6094
唇	-11.6094
嵩	-11.6094
拶	-11.6094
挨	-11.6094
癌	-11.6094
縞	-11.6094
繕	-11.6094
▁捉え	-11.6094
▁java	-11.6094
▁ケンブリッジ	-11.6094
▁オスウェ	-11.6094
▁スズキ	-11.6094
▁ミュウ	-11.6094
▁遂げ	-11.6094
▁呼びかけ	-11.6094
▁ジャージー	-11.6094
▁トゥーロフ	-11.6094
▁ロチェスター	-11.6094
▁ミッキー	-11.6095
▁篠	-11.6095
ki	-11.6097
▁デー	-11.6097
▁戴	-11.61
▁楚	-11.61
▁ワイオ	-11.61
▁投じ	-11.6101
暇	-11.6101
胆	-11.6101
▁special	-11.6101
93	-11.6101
▁双葉	-11.6101
▁チャンピオンシップ	-11.6102
▁マレー	-11.6103
ヤード	-11.6103
▁落と	-11.6103
清	-11.6105
▁騎兵	-11.6106
キューバ	-11.6106
▁海老	-11.6106
▁甚	-11.6107
▁固め	-11.611
▁ウー	-11.6111
▁スタンダード	-11.6111
▁pok	-11.6112
▁隙	-11.6115
レブ	-11.6121
▁処方	-11.6122
▁輩	-11.6123
▁有機	-11.6123
▁『""』	-11.6132
▁帽	-11.6133
▁りん	-11.6133
▁四方	-11.6138
▁ひろし	-11.6139
▁五月	-11.6141
▁バルビ	-11.6145
▁高岡	-11.6145
▁ゲージ	-11.6145
▁ティム	-11.615
37	-11.6151
潮	-11.6153
簿	-11.6153
アニマル	-11.6154
静	-11.6164
ポケモン	-11.6164
伊	-11.6165
奥	-11.6165
孝	-11.6165
詩	-11.6165
複	-11.6165
わら	-11.6168
ning	-11.6168
▁富田	-11.6171
est	-11.6176
▁抜き	-11.618
▁シル	-11.618
グマ	-11.618
▁太田	-11.6181
▁運輸	-11.6181
▁住み	-11.6196
▁励	-11.6201
▁wi	-11.6205
▁討ち	-11.6208
▁斗	-11.6215
▁106	-11.6218
たい	-11.6218
▁おかし	-11.6219
app	-11.6225
▁タケ	-11.6227
▁下が	-11.6234
▁巧	-11.6235
▁リオ	-11.6236
▁カレー	-11.6237
リース	-11.6255
▁内務	-11.6258
ction	-11.6261
▁括	-11.6263
▁インストー	-11.6264
▁バーン	-11.6266
▁消し	-11.6269
▁yoshik	-11.6269
ビン	-11.627
▁135	-11.6272
パン	-11.6282
▁ジェ	-11.6283
裂	-11.6286
ハン	-11.6288
▁119	-11.6299
▁グラス	-11.6303
▁染	-11.6303
▁僧	-11.6306
▁!!』	-11.6307
▁マリー	-11.6319
互い	-11.632
▁ツ	-11.6325
▁曹	-11.6328
mc	-11.6337
▁ヒドロ	-11.6338
▁109	-11.634
シェ	-11.6341
ley	-11.6346
98	-11.6355
▁red	-11.6355
▁ヴァン	-11.6357
▁vita	-11.6357
50	-11.6378
アウト	-11.6383
▁ar	-11.6386
86	-11.6387
ドロラ	-11.6394
▁庫	-11.6395
▁152	-11.6395
ムズ	-11.6399
ンデス	-11.6414
ダガ	-11.6415
▁ミラ	-11.6419
リズム	-11.642
メイ	-11.6426
do	-11.6437
▁フォル	-11.644
▁アンモニ	-11.644
▁バンク	-11.6442
▁inc	-11.6443
ol	-11.6444
22	-11.6447
▁""	-11.6448
▁ダニー	-11.6452
▁如	-11.6453
ペン	-11.6453
▁水道	-11.6454
67	-11.6456
▁貧	-11.6456
慢	-11.6457
ガイ	-11.6459
▁シネ	-11.6462
▁幾何	-11.6464
填	-11.6464
宋	-11.6464
扉	-11.6464
拐	-11.6464
鰭	-11.6464
▁マーガレット	-11.6464
▁割り当て	-11.6464
▁コロシオ	-11.6464
▁捧げ	-11.6464
▁朝日新聞	-11.6464
▁アミューズ	-11.6464
キャニオン	-11.6464
▁そうした	-11.6465
▁功労	-11.6465
▁ジョウト	-11.6465
▁切り替え	-11.6465
ディフェンダー	-11.6466
▁こんな	-11.6466
▁アップアップ	-11.6466
▁羽根	-11.6467
▁イースト	-11.6468
▁ロビン	-11.6468
▁茶色	-11.6468
ヘイブン	-11.6469
▁ダメ	-11.6469
▁酒井	-11.647
▁称え	-11.647
▁繊維	-11.6471
▁鳴き	-11.6471
▁カンザス	-11.6471
▁桜井	-11.6471
▁ガルフ	-11.6471
▁アンドリュー	-11.6471
▁バタ	-11.6471
ヘイム	-11.6472
▁ビルマ	-11.6472
▁毛利	-11.6473
als	-11.6473
▁ゴースト	-11.6474
▁宝石	-11.6474
▁盛り込	-11.6475
▁田園	-11.6477
▁フランシス	-11.6478
▁眞	-11.6482
▁慕	-11.6482
▁トゥメト	-11.6482
▁ジェリー	-11.6483
46	-11.6487
▁待ち	-11.6487
▁津軽	-11.6493
▁棲	-11.6493
▁詠	-11.6493
▁ビクター	-11.6494
▁栄養	-11.6495
▁ビット	-11.6497
秋	-11.6504
▁門下	-11.6506
幡	-11.6507
ヴィヤー	-11.6508
▁坂上	-11.6508
▁楽しめ	-11.6513
uro	-11.6516
ママ	-11.6518
▁裁	-11.6519
出血	-11.6519
▁ペット	-11.6527
総	-11.6527
ッチャー	-11.6529
▁ゲンゴロウモドキ	-11.653
ッ	-11.653
▁世話	-11.6536
祥	-11.6537
たる	-11.6539
>	-11.654
▁パテー	-11.654
▁跳	-11.6541
▁ざわ	-11.6543
酷	-11.6545
精	-11.6546
魚	-11.6546
▁174	-11.6547
警	-11.6548
旨	-11.6548
峠	-11.6549
カウント	-11.6549
湯	-11.6549
余	-11.6549
夏	-11.655
聖	-11.655
▁.)	-11.6551
▁ジャクソン	-11.6552
▁祀	-11.6552
▁boy	-11.656
▁ヤス	-11.656
マウント	-11.6561
▁ハット	-11.6561
▁バルバ	-11.6563
▁さき	-11.6572
ツアー	-11.6574
関東	-11.6575
▁臭	-11.6576
ハーゲン	-11.6582
▁飛ば	-11.6582
かい	-11.6598
ノン	-11.661
▁豆	-11.6611
ラリー	-11.6617
▁スティーブン	-11.6618
レート	-11.6623
さま	-11.6623
エイト	-11.6624
▁part	-11.663
xt	-11.6632
▁jam	-11.6634
bd	-11.6642
ri	-11.6642
▁中津	-11.6644
▁翔	-11.6647
ハル	-11.6654
52	-11.6657
▁アントニオ	-11.6659
ひこ	-11.6671
▁潤	-11.668
▁320	-11.6692
▁ストリート	-11.6695
▁亭	-11.6695
▁づけ	-11.6715
▁メダ	-11.6717
コット	-11.6725
ブス	-11.6727
▁麗	-11.6728
ルバイト	-11.6737
49	-11.6739
▁スリ	-11.674
プロ	-11.6749
▁war	-11.6757
▁ss	-11.6761
酸化	-11.6765
ラブル	-11.677
くさん	-11.6773
▁dream	-11.6773
ゼル	-11.678
▁全日	-11.6786
sion	-11.6792
引き	-11.6792
ro	-11.68
▁ルカ	-11.6804
▁袋	-11.6805
ング	-11.6806
ss	-11.6811
▁172	-11.6812
▁153	-11.6813
▁背負	-11.6815
▁種子	-11.6816
トラ	-11.6816
▁サバン	-11.6821
▁ゲイ	-11.6832
ウェア	-11.6836
イング	-11.6837
ノフ	-11.6839
▁esp	-11.6842
やく	-11.6849
▁スリランカ	-11.6849
▁プライベート	-11.6849
哨	-11.6849
甥	-11.6849
瘍	-11.6849
▁ゴールデンボーイ	-11.6849
▁倶楽	-11.6849
▁伊予	-11.6849
▁堀越	-11.685
▁薬剤	-11.685
▁ベビー	-11.685
▁マーティン	-11.685
ar	-11.6851
▁京王	-11.6854
▁敵対	-11.6854
▁♂	-11.6856
▁勅	-11.6856
▁テューキー	-11.6856
▁獅子	-11.6856
▁位置付け	-11.6857
▁ワイド	-11.6857
▁和歌	-11.6858
▁クロア	-11.6858
▁鹿野	-11.6859
▁亜紀	-11.686
matic	-11.6863
▁ニュートン	-11.6863
ホッケー	-11.6864
ard	-11.6865
よう	-11.6867
▁エキシビ	-11.6867
▁籠	-11.6867
▁肝	-11.6867
▁神楽	-11.6868
▁ヤロスラ	-11.687
有志	-11.6872
▁スロー	-11.6872
▁アンナ	-11.6874
▁高松	-11.6876
▁コバ	-11.6877
▁爪	-11.6879
▁嫡	-11.6879
▁廉	-11.6879
▁ミュージアム	-11.6879
サーデ	-11.688
▁fest	-11.6881
▁人事	-11.6882
むら	-11.6883
▁次官	-11.6883
▁潰	-11.6886
▁マッカー	-11.6886
▁セッ	-11.6886
▁先進	-11.6888
▁通い	-11.6888
▁台詞	-11.6888
▁lacton	-11.6889
▁憂	-11.6891
▁渓	-11.6891
▁アトランティック	-11.6892
芝	-11.6892
▁カイ	-11.6902
▁尋	-11.6902
▁ヴェネ	-11.6902
▁スピー	-11.6905
ケッツ	-11.6906
▁スー	-11.6915
ey	-11.6926
らせ	-11.6929
▁なべ	-11.693
廠	-11.693
eo	-11.693
真	-11.6932
霞	-11.6933
▁鍋	-11.6939
▁庵	-11.694
▁ジョセフ	-11.694
▁キャン	-11.694
▁レディース	-11.6941
茶	-11.6943
▁gs	-11.6943
猟	-11.6943
飯	-11.6946
歯	-11.6947
ワールド	-11.6948
碑	-11.6948
仕	-11.6949
滞	-11.6949
譲	-11.6949
秘	-11.6949
墓	-11.695
誕	-11.695
協	-11.695
▁カート	-11.6954
▁ワル	-11.6961
▁スパ	-11.6968
▁連ね	-11.6969
▁ヒュー	-11.6973
づき	-11.6977
▁バリ	-11.6981
ライド	-11.6983
▁グレナ	-11.6988
▁糖	-11.6989
▁エボラ	-11.699
ow	-11.6993
▁ろう	-11.6996
▁バター	-11.6998
リュー	-11.6999
▁女学	-11.7
▁笑い	-11.7001
▁きん	-11.7002
づみ	-11.7002
box	-11.7002
▁デイ	-11.7003
▁クリスティ	-11.7005
▁トー	-11.7016
サイト	-11.7021
▁sas	-11.7022
川端	-11.7022
▁リボ	-11.7023
▁グローブ	-11.7027
チゴ	-11.7042
▁ょ	-11.7046
▁so	-11.7056
▁ドナウ	-11.7061
ポラ	-11.7062
▁ヌ	-11.7064
▁出せ	-11.7069
ct	-11.7071
▁揚	-11.7076
▁じゅう	-11.7081
▁那	-11.7088
ゲル	-11.7096
▁マラ	-11.7097
▁あて	-11.7106
ドー	-11.7119
ムス	-11.7129
▁1600	-11.7136
se	-11.7139
▁114	-11.714
82	-11.7141
▁漬け	-11.7142
▁バーク	-11.7152
u	-11.7153
ドス	-11.7162
▁emi	-11.7166
▁攻め	-11.7177
グラ	-11.7184
▁ve	-11.7186
▁みる	-11.719
▁飲み	-11.7198
モーター	-11.7199
▁na	-11.7207
シンカ	-11.7211
▁プロセ	-11.7218
▁曲が	-11.7224
▁追い	-11.7224
▁hd	-11.7233
▁通行	-11.7237
▁video	-11.7239
ールダー	-11.724
▁tr	-11.7241
▁加速	-11.7241
▁大村	-11.7245
▁しろ	-11.7246
▁トゲ	-11.7248
ζ	-11.7249
▁high	-11.7249
▁福知山	-11.7249
姻	-11.7249
嶽	-11.7249
帥	-11.7249
瓶	-11.7249
竣	-11.7249
辱	-11.7249
▁イーブイ	-11.7249
▁faky	-11.7249
▁taku	-11.7249
▁デヴォン	-11.7249
▁フィーチャー	-11.7249
▁エンデュ	-11.7249
▁ジャングル	-11.7249
▁猿渡	-11.7249
ツィア	-11.7249
▁ピエール	-11.7249
▁気に入	-11.7249
▁引き上げ	-11.725
▁亀戸	-11.725
▁弁護	-11.725
▁格好	-11.725
サヴァ	-11.725
▁サクラ	-11.7251
▁禁じ	-11.7251
▁組み立て	-11.7252
▁長谷川	-11.7253
▁我が	-11.7253
▁勇気	-11.7254
▁やって来	-11.7255
▁鳩	-11.7256
▁プライム	-11.7256
▁テーブル	-11.7257
ダービー	-11.7257
クスプレス	-11.7257
▁すご	-11.7258
▁el	-11.7258
▁恭	-11.7268
▁セカンド	-11.7268
▁167	-11.7269
▁主婦	-11.7269
▁足利	-11.7271
リック	-11.7271
▁強打	-11.7274
▁まね	-11.7274
▁ドーム	-11.7275
▁近鉄	-11.7279
▁エドワード	-11.7281
▁コンパクト	-11.7281
梨	-11.7289
▁ブース	-11.729
▁アーノルド	-11.7293
▁-)	-11.7295
▁ゲン	-11.7306
▁塊	-11.7306
▁チン	-11.7307
▁焼き	-11.7307
▁112	-11.7315
▁崩れ	-11.7317
▁在日	-11.7317
▁腐	-11.7318
十条	-11.7318
▁淡	-11.7327
▁久保	-11.7333
▁総理	-11.7343
▁掌	-11.7344
▁ヴォーン	-11.7345
下げ	-11.7346
▁ジー	-11.7348
▁lin	-11.7348
▁北上	-11.7349
▁グリ	-11.7353
メディア	-11.7355
ブラスト	-11.7357
▁planet	-11.7357
タイムズ	-11.736
舞	-11.7361
タワー	-11.7361
▁きち	-11.7363
迷	-11.7363
脇	-11.7364
随	-11.7364
勲	-11.7365
砂	-11.7365
沈	-11.7366
刺	-11.7366
短	-11.7367
講	-11.7367
▁下回	-11.7367
隔	-11.7368
▁cg	-11.7368
▁裸	-11.737
▁賜	-11.737
▁三国	-11.737
プル	-11.7377
ic	-11.7378
ワーク	-11.7379
▁ブレ	-11.7382
▁逝	-11.7382
▁錠	-11.7382
▁165	-11.7383
▁ヴォーカル	-11.7383
▁sata	-11.7388
▁リンダ	-11.7393
たく	-11.7395
▁コパ	-11.7396
ドリ	-11.7404
▁キリン	-11.7406
▁ラト	-11.741
タール	-11.7411
▁手数	-11.7422
▁ヨ	-11.7425
tze	-11.7434
▁nin	-11.7434
84	-11.7439
51	-11.7441
伝え	-11.7449
▁曾	-11.7452
▁アンドレ	-11.7461
▁トラッ	-11.7468
▁きた	-11.7476
▁きみ	-11.7478
▁却	-11.7499
ルニト	-11.7501
▁tk	-11.7535
▁まこ	-11.7545
▁sl	-11.7546
▁ボーイ	-11.7546
▁エミー	-11.7553
▁350	-11.7555
ヴァー	-11.7555
フラ	-11.756
uss	-11.7561
書き	-11.7561
▁ハロ	-11.7566
ポン	-11.7572
テイ	-11.7575
スプリングス	-11.7576
分け	-11.7577
▁バハ	-11.7583
コール	-11.7597
▁附	-11.7603
▁渡し	-11.7608
▁まき	-11.7611
コーラ	-11.7612
▁オールスター	-11.7617
kt	-11.7617
▁丈	-11.7619
▁アマ	-11.7622
▁かえ	-11.7628
▁滅	-11.7631
ニマム	-11.7641
▁ep	-11.7644
▁ダンカ	-11.7646
▁渦	-11.7657
▁ビック	-11.7658
アー	-11.7662
蓋	-11.7664
▁ボーカ	-11.7664
▁三菱	-11.7665
‐	-11.7665
▁ナイアガラ	-11.7665
▁モントリオール	-11.7665
▁勾	-11.7665
▁哺乳	-11.7665
▁妥	-11.7665
▁汽	-11.7665
壌	-11.7665
揆	-11.7665
腿	-11.7665
遽	-11.7665
▁ゲネシス	-11.7665
▁オーディオ	-11.7665
▁テネシー	-11.7665
▁ロボットガールズ	-11.7666
▁乏し	-11.7666
▁喫茶	-11.7666
▁プリマス	-11.7666
▁saint	-11.7666
▁捕まえ	-11.7667
▁悔し	-11.7667
▁ジミー	-11.7667
▁オーナー	-11.7668
▁柔らか	-11.7668
▁警視	-11.7669
▁申し出	-11.7669
wf	-11.7671
メン	-11.7672
▁允	-11.7673
▁惟	-11.7673
▁ステレオ	-11.7673
▁パニーニ	-11.7673
▁ミッドフィ	-11.7673
オーリンズ	-11.7674
▁ダンジョン	-11.7674
▁コンプレッ	-11.7674
▁応え	-11.7675
▁マッキー	-11.7676
オガ	-11.7677
ーサル	-11.768
▁アクシ	-11.768
▁なんと	-11.7681
▁ヒップ	-11.7682
モーニング	-11.7683
▁任せ	-11.7685
▁ヴィクトリア	-11.7686
▁縄	-11.7686
▁クモ	-11.7687
日本	-11.7688
メニュー	-11.7688
▁cod	-11.7695
▁コマーシャ	-11.7696
▁ギネス	-11.7699
▁小児	-11.7699
▁服部	-11.7699
▁遅く	-11.77
▁出入り	-11.7701
▁ラッセル	-11.7703
▁周波	-11.7705
▁遠野	-11.7706
コンテナ	-11.7711
▁darw	-11.7713
▁弾き	-11.7714
▁モニ	-11.7716
ml	-11.7717
ニック	-11.7719
ネブ	-11.7721
▁スイッチ	-11.7722
▁わかり	-11.7723
▁セレ	-11.7724
▁真理	-11.7732
▁メイド	-11.7734
▁寮	-11.7738
▁ラベ	-11.7744
▁カテゴリ	-11.775
▁オリン	-11.775
▁刃	-11.7751
▁禅	-11.7751
▁明日	-11.7754
▁はじま	-11.7758
▁アク	-11.7763
▁肌	-11.7765
▁テクニ	-11.7765
▁もうけ	-11.7767
▁飛び出	-11.7768
ズーリ	-11.7774
it	-11.7775
ベリー	-11.7782
テレビ	-11.7782
ヒルズ	-11.7784
街	-11.7788
四	-11.779
はや	-11.7793
怒	-11.7795
▁果て	-11.7796
▁アレン	-11.7796
ond	-11.7796
誠	-11.7799
鬼	-11.7801
ホテル	-11.7801
▁mi	-11.7801
覆	-11.7801
▁スイ	-11.7801
脚	-11.7802
今	-11.7802
▁ヌクレオシド	-11.7803
▁di	-11.7807
ソング	-11.7809
ソース	-11.7814
▁則	-11.7816
ホップ	-11.7817
▁ひど	-11.7818
▁クロノ	-11.7836
▁とし	-11.7853
▁きり	-11.7858
レイヤー	-11.7862
ザル	-11.7862
▁生か	-11.7864
サイン	-11.7867
▁大山	-11.7869
▁生理	-11.7872
ベルク	-11.7874
▁ハーン	-11.7886
んな	-11.789
ll	-11.7893
ータ	-11.7898
▁or	-11.7908
フル	-11.7911
▁マーケ	-11.7916
ヒール	-11.7921
くに	-11.7925
▁符	-11.7927
▁ソル	-11.7929
▁道場	-11.7931
▁キル	-11.7934
▁ウル	-11.7936
ake	-11.7941
▁モントゴメリー	-11.7942
inch	-11.7947
レーン	-11.7959
▁下山	-11.7962
▁tim	-11.7966
▁ムス	-11.797
大阪	-11.7971
▁?』	-11.798
88	-11.7982
▁たび	-11.7984
▁不定	-11.7986
厳	-11.7988
▁ギリシ	-11.7996
▁138	-11.8
ant	-11.8012
▁三田	-11.8028
▁エチ	-11.8033
ポイント	-11.8034
▁181	-11.8085
▁dc	-11.8087
▁sam	-11.8088
ケート	-11.8095
▁フェルディナン	-11.8095
▁アドバイ	-11.8096
▁燃え	-11.81
▁crystal	-11.81
▁produce	-11.81
▁ラミニン	-11.81
▁但	-11.81
▁危惧	-11.81
▁悦	-11.81
▁杜	-11.81
▁榎	-11.81
▁此	-11.81
▁漂	-11.81
▁窒	-11.81
▁翁	-11.81
夷	-11.81
杖	-11.81
燥	-11.81
稽	-11.81
▁ダッチェス	-11.81
▁ケンタッキー	-11.81
▁スクラントン	-11.81
▁マスコミ	-11.81
▁立ち向か	-11.81
▁伊豆	-11.81
▁バーリントン	-11.81
▁methyl	-11.8101
▁クイズ	-11.8101
▁トンプキンス	-11.8102
アクター	-11.8102
フィクション	-11.8103
▁幕僚	-11.8103
▁フレデリック	-11.8103
▁訪ね	-11.8103
リサーチ	-11.8105
▁リハ	-11.8105
▁安芸	-11.8106
▁久美	-11.8107
ュメント	-11.8107
▁硫酸	-11.8108
▁リハビリ	-11.8108
▁落ち着	-11.8108
▁成り立	-11.8113
▁スネ	-11.8115
▁金峰	-11.8115
メル	-11.8116
▁クン	-11.8118
▁真実	-11.8118
▁www	-11.8119
▁見込	-11.8122
▁セールス	-11.8124
▁シナ	-11.8125
ng	-11.8125
▁ホロ	-11.8126
▁ひで	-11.8128
▁嫌が	-11.8129
▁喪	-11.8135
▁セブン	-11.8137
▁ビリー	-11.8138
リウム	-11.8139
▁ロッキー	-11.814
▁下北	-11.8147
▁酢	-11.8149
ルド	-11.8149
▁佐野	-11.8157
▁預け	-11.8158
デス	-11.8161
▁450	-11.8161
フォース	-11.8161
▁タブ	-11.8162
▁フットボール	-11.8162
▁千代	-11.8167
▁アール	-11.8168
▁レジ	-11.8175
ッコイ	-11.8175
ランダム	-11.8175
▁バカ	-11.8175
▁霧	-11.8176
▁pro	-11.8179
▁麻布	-11.8183
▁ソール	-11.8185
▁めい	-11.8186
▁法務	-11.8196
▁らく	-11.8197
▁ゆか	-11.8197
▁すみ	-11.8199
環状	-11.8204
▁臼	-11.8204
▁マウンテン	-11.8204
▁察	-11.8209
mg	-11.8209
▁年末	-11.821
チック	-11.8214
▁川原	-11.8216
▁農学	-11.8217
▁05	-11.8219
▁素早	-11.8222
ピクチャー	-11.8224
▁あえ	-11.8228
ッター	-11.8234
▁ぬい	-11.8236
▁信用	-11.8242
矢	-11.8244
タヴィア	-11.8246
▁ぞう	-11.8247
伸	-11.8247
十	-11.8248
バブル	-11.8249
悟	-11.8251
モニター	-11.8251
▁ライブラリ	-11.8252
煙	-11.8252
箱	-11.8255
便	-11.8255
欧	-11.8255
茂	-11.8255
姿	-11.8256
っぽ	-11.8257
89	-11.8257
▁裏切	-11.8259
イバ	-11.8259
▁king	-11.8266
44	-11.8272
▁まり	-11.8272
▁彰	-11.8275
▁se	-11.8275
ンチャン	-11.8277
▁送り込	-11.8281
グレイ	-11.8281
落ち	-11.8281
")	-11.8286
文字	-11.829
▁澤	-11.8294
ホーム	-11.8296
▁浄	-11.8298
▁真っ	-11.8306
イヌ	-11.8307
ねん	-11.831
ノオ	-11.8313
▁呈	-11.8317
▁フェニ	-11.8318
▁マルコ	-11.8318
レポート	-11.8328
西川	-11.8332
▁ポッ	-11.8332
ンスク	-11.8341
ch	-11.8345
▁追いつ	-11.8347
▁en	-11.8357
▁踏ま	-11.8361
▁アロー	-11.8363
ワール	-11.8365
de	-11.8366
▁おい	-11.838
by	-11.8383
▁ブダ	-11.8383
興業	-11.8385
▁ジュン	-11.8388
ug	-11.8392
府立	-11.8394
▁ペル	-11.8395
▁159	-11.8401
▁オマー	-11.8403
かげ	-11.8416
▁ラガー	-11.8419
54	-11.8422
チェ	-11.8425
▁つも	-11.8425
nsis	-11.8427
ボックス	-11.8433
ソウ	-11.8435
▁air	-11.8451
▁155	-11.8451
▁vf	-11.8452
lisa	-11.8453
▁オリンピア	-11.8455
▁kh	-11.8458
▁マウント	-11.8458
▁企	-11.8482
▁ベテラン	-11.8489
th	-11.849
カロ	-11.8493
hoo	-11.8494
▁メトロ	-11.8495
▁let	-11.8496
▁掘り	-11.8496
トルズ	-11.8498
プス	-11.8501
q	-11.8505
▁イブ	-11.8508
▁チュー	-11.8509
▁mf	-11.8511
▁貸	-11.8512
もり	-11.853
ティック	-11.8531
ーション	-11.8532
忙	-11.8532
ヘ	-11.8533
▁レス	-11.8536
▁人文	-11.855
niversa	-11.8554
▁ウスヴャー	-11.8555
▁ウルグアイ	-11.8555
▁ベネズエラ	-11.8555
▁丞	-11.8555
▁寅	-11.8555
▁惣	-11.8555
▁櫛	-11.8555
▁殆	-11.8555
▁江曽島	-11.8555
▁蛍	-11.8555
マグワイア	-11.8555
賠	-11.8555
▁ドナルド	-11.8555
▁radio	-11.8555
script	-11.8555
▁唱え	-11.8555
▁ナレーター	-11.8555
▁リアルタイム	-11.8555
▁引き受け	-11.8555
ival	-11.8555
▁リボヌクレオチド	-11.8555
アベニュー	-11.8555
▁!!」	-11.8555
▁小樽	-11.8555
▁vim	-11.8555
ダルカナ	-11.8555
▁シェイク	-11.8555
rza	-11.8556
▁持ちかけ	-11.8556
ネシア	-11.8556
▁入れ替え	-11.8557
▁症候	-11.8557
▁宇治	-11.8557
▁スパイク	-11.8557
バンクーバー	-11.8558
▁テュ	-11.8558
vision	-11.8558
▁ガールズ	-11.8559
▁忠実	-11.856
▁ラクト	-11.856
▁慶応	-11.856
▁廣	-11.8563
▁楠	-11.8563
▁樋	-11.8563
▁睦	-11.8563
▁粗	-11.8563
▁william	-11.8563
▁ジョアン	-11.8563
▁宮古	-11.8564
▁壊れ	-11.8565
▁見直	-11.8567
▁守護	-11.8568
▁切り離	-11.8568
▁こだわ	-11.8568
▁くち	-11.8569
▁利根	-11.8569
▁仕え	-11.857
バキ	-11.857
▁ペイ	-11.8571
tree	-11.8572
▁ki	-11.8573
▁免れ	-11.8573
▁立教	-11.8574
▁片方	-11.8574
▁mix	-11.8575
ンダー	-11.8577
▁ノーサンプトン	-11.8577
▁サマセット	-11.8577
▁ピアニスト	-11.8577
▁wild	-11.8577
▁コンサル	-11.8578
▁多岐	-11.8579
カスミ	-11.8579
▁ゆめ	-11.8581
▁奪い	-11.8582
▁店頭	-11.8582
able	-11.8586
継ぎ	-11.8588
▁扇	-11.859
▁招き	-11.8592
▁マーサー	-11.8597
▁トーン	-11.8598
歯科	-11.8599
バラード	-11.8604
▁大内	-11.8605
▁傑	-11.8605
▁橘	-11.8605
▁マーケティング	-11.8606
▁長良	-11.8607
▁望ま	-11.861
▁グレー	-11.8614
▁get	-11.8615
▁ふみ	-11.8617
ンド	-11.8617
▁替わ	-11.862
▁ヤ	-11.862
▁寓	-11.862
通し	-11.8622
▁kay	-11.8628
」	-11.8628
▁エージェン	-11.8629
▁ring	-11.8632
▁ワイルド	-11.8635
エーション	-11.8635
▁余り	-11.8636
▁デイリー	-11.8636
▁port	-11.8637
▁叩き	-11.8639
▁ポット	-11.8644
▁チェーン	-11.8649
▁ジェット	-11.865
ble	-11.8654
▁award	-11.8655
▁ムーア	-11.8657
▁?」	-11.8657
▁ウォール	-11.8659
▁acetyl	-11.8659
▁無くな	-11.8659
▁欠け	-11.866
▁ゆり	-11.8665
▁小海	-11.8667
すら	-11.8671
まえ	-11.8672
▁ピート	-11.8673
▁マネー	-11.8682
▁エド	-11.8691
リンク	-11.8692
▁230	-11.8695
ティント	-11.8696
サスペンス	-11.8699
フィール	-11.8708
迎	-11.8714
暖	-11.8715
笠	-11.8716
疫	-11.8719
慣	-11.872
銘	-11.8721
ウェスト	-11.8721
荘	-11.8722
▁棚	-11.8723
モントゴメリー	-11.8723
ワイ	-11.8724
cam	-11.8725
02	-11.8725
曹	-11.8725
以	-11.8726
虐	-11.8726
希	-11.8727
範	-11.8728
兄	-11.8729
召	-11.8731
歳	-11.8731
鉱	-11.8731
奉	-11.8731
株	-11.8731
吸	-11.8731
ヤンキー	-11.8732
仏	-11.8732
掛け	-11.8732
▁武田	-11.8733
タイトル	-11.8733
武道	-11.8735
▁墨	-11.8737
▁バーナード	-11.8738
自治	-11.874
▁おの	-11.8744
水道	-11.8746
nn	-11.8757
▁モスク	-11.8762
ge	-11.8762
ルーシ	-11.8763
イズ	-11.8764
▁含み	-11.8766
83	-11.8771
ミール	-11.8781
▁惨	-11.8782
iko	-11.8786
ージニア	-11.8789
カム	-11.8791
▁飛び込	-11.8792
ルク	-11.8799
▁新生	-11.8805
▁滑ら	-11.8806
suya	-11.8811
▁ジョーンズ	-11.8814
▁イル	-11.8844
co	-11.8848
▁シャトル	-11.8849
▁pe	-11.885
▁デート	-11.8851
as	-11.8857
▁コス	-11.8858
▁コンペ	-11.8859
▁118	-11.8863
▁バグ	-11.8883
▁124	-11.8884
ダック	-11.8885
チーム	-11.8892
ーンズボロ	-11.8909
▁band	-11.8909
▁ブラスト	-11.891
▁pri	-11.8924
ファンド	-11.8928
▁145	-11.8931
物語	-11.8933
▁キュー	-11.8935
デア	-11.8936
デール	-11.8941
ブリー	-11.8944
ns	-11.8947
▁アニマル	-11.895
ティン	-11.8951
ano	-11.8952
▁しゃ	-11.8955
▁乗り込	-11.8957
phone	-11.8961
▁are	-11.8973
▁トレー	-11.898
▁抱き	-11.8986
▁ネス	-11.8994
ner	-11.8995
▁膨	-11.8995
▁par	-11.9005
ぎょ	-11.9006
▁アリス	-11.9007
▁掴	-11.9008
ポリ	-11.9013
ろん	-11.9014
▁貼	-11.9017
▁揺れ	-11.9018
▁ミシ	-11.902
▁bill	-11.9021
▁あさ	-11.9021
▁fight	-11.9022
アム	-11.9022
▁トランス	-11.9025
ap	-11.9026
▁ドス	-11.9027
▁デンソー	-11.903
▁ホイッ	-11.9031
ーバー	-11.9031
▁テイチク	-11.9031
▁ミシシッピ	-11.9031
▁惹	-11.9031
▁成し遂げ	-11.9031
▁猶	-11.9031
▁莫	-11.9031
▁郁	-11.9031
ブラザース	-11.9031
俟	-11.9031
尹	-11.9031
屑	-11.9031
讐	-11.9031
▁サンディエゴ	-11.9031
▁馴染	-11.9031
▁オックスフォード	-11.9031
▁ダイナミック	-11.9031
▁ボアスピア	-11.9031
▁乗り越え	-11.9031
▁リーハイ	-11.9031
▁again	-11.9031
▁傾斜	-11.9031
▁義勇	-11.9031
▁リアリティ	-11.9031
▁ワーナー	-11.9031
げきじょう	-11.9031
▁喜八	-11.9031
ウル	-11.9031
▁ゴードン	-11.9031
スタメン	-11.9032
▁教科書	-11.9032
▁載せ	-11.9032
▁カンヌ	-11.9033
シミュレーション	-11.9033
▁羽毛	-11.9033
クリエイター	-11.9034
▁美智	-11.9034
ケー	-11.9034
▁鈴鹿	-11.9035
▁余市	-11.9035
アルバレス	-11.9035
▁未だ	-11.9035
▁高茶屋	-11.9035
▁ライオン	-11.9035
▁振る	-11.9037
▁取り壊	-11.9037
▁ネガ	-11.9038
▁立花	-11.9038
▁じゅん	-11.9038
▁ロク	-11.9039
▁眷	-11.9039
▁槍	-11.9039
▁ドコモ	-11.9039
▁ブドウ	-11.904
▁悩ま	-11.904
▁アルフレッド	-11.904
フォールズ	-11.904
インターフェース	-11.904
ブルー	-11.904
▁新潮	-11.9041
▁防空	-11.9041
▁good	-11.9041
▁振り返	-11.9042
▁太刀	-11.9042
▁エコ	-11.9043
▁カリブ	-11.9043
▁高ま	-11.9044
▁ロイ	-11.9048
▁従え	-11.905
▁疑わ	-11.905
▁晴れ	-11.9052
▁貼り	-11.9053
▁婿	-11.9054
▁chor	-11.9054
▁樽	-11.9054
▁スタンフォード	-11.9054
▁外科	-11.9054
▁苦労	-11.9055
▁bbc	-11.9056
いだ	-11.9057
▁カントー	-11.9057
▁143	-11.9057
▁アレクサンド	-11.9058
▁励ま	-11.9064
▁フライト	-11.9066
コースト	-11.9066
▁凹	-11.9069
▁拍	-11.9069
▁ワニ	-11.907
▁ピー	-11.9071
▁貧し	-11.9079
▁107	-11.9081
▁テキスト	-11.9084
▁擬	-11.9084
▁ヨーク	-11.9085
ティブ	-11.9088
ニャー	-11.909
ベスト	-11.9094
▁disc	-11.9095
▁エヴリ	-11.9096
▁曽	-11.9099
▁ロン	-11.9099
▁萱	-11.9099
▁エナジー	-11.9103
▁プー	-11.9103
▁tet	-11.911
▁ヴィー	-11.9113
▁ナンバー	-11.9114
▁飲み込	-11.9114
▁蜂	-11.9115
▁紗	-11.9115
▁見送	-11.9116
ラヴ	-11.9117
ハム	-11.9118
▁打ち込	-11.9122
▁縫	-11.9124
モント	-11.9125
▁細川	-11.9125
▁直木	-11.9128
▁ナイル	-11.9134
▁ミステリー	-11.9135
シュタイン	-11.9138
バイト	-11.9144
すけ	-11.9145
ゴナ	-11.9152
▁mo	-11.9155
トランジット	-11.9157
▁ヤマ	-11.9163
▁正方	-11.9165
▁dra	-11.9166
かん	-11.9166
ウィ	-11.9167
ラル	-11.9169
ブラザーズ	-11.9169
rom	-11.917
ps	-11.9171
買	-11.9172
ブラン	-11.9174
ler	-11.9176
マーキュリー	-11.9176
▁アグ	-11.9184
弧	-11.9191
▁ビス	-11.9192
ノコ	-11.9194
▁右京	-11.9197
▁落ち込	-11.9199
▁きの	-11.9201
▁レーダー	-11.9206
シナ	-11.921
股	-11.9212
▁砕	-11.9215
▁df	-11.9216
▁青山学院	-11.9217
▁ディス	-11.9218
▁フロー	-11.922
伐	-11.9223
符	-11.9224
那	-11.9224
ハーン	-11.9224
亭	-11.9225
遷	-11.9226
ニン	-11.9229
押し	-11.9229
デート	-11.9229
87	-11.923
いろ	-11.923
周	-11.9231
▁思いつ	-11.9231
関係	-11.9232
課	-11.9232
ストリート	-11.9236
▁ブラッド	-11.9242
クセン	-11.9242
▁ちり	-11.925
ぶさ	-11.9258
▁iwa	-11.9258
トム	-11.926
ケネス	-11.9264
▁ニコル	-11.9267
60	-11.9271
▁索	-11.9272
▁miss	-11.9272
▁アイラ	-11.9279
ローズ	-11.928
line	-11.9283
émo	-11.9285
▁阪	-11.9287
フライ	-11.9292
▁メロ	-11.9295
野坂	-11.9322
▁104	-11.9324
める	-11.9329
▁伐	-11.9333
▁ウェ	-11.9334
▁ph	-11.9338
ベック	-11.9339
▁新道	-11.934
▁ギャラ	-11.9342
おき	-11.9343
ウルス	-11.9347
ルト	-11.9351
▁ランプ	-11.9359
▁合わ	-11.9362
造形	-11.9376
▁108	-11.9379
▁打っ	-11.938
よそ	-11.9383
▁シンプ	-11.9388
▁宰	-11.939
▁出張	-11.9407
▁バート	-11.9412
▁cat	-11.9419
▁一生	-11.9421
ーブ	-11.9422
▁インス	-11.9424
ピーク	-11.9425
57	-11.943
▁祥	-11.9431
ラシ	-11.9435
当たり	-11.9446
▁ミステリ	-11.945
グリ	-11.9452
ニョ	-11.9456
バリー	-11.9457
▁ケニ	-11.9461
▁un	-11.9464
サミ	-11.9464
▁こも	-11.9468
だん	-11.9473
ケイ	-11.9476
ロディ	-11.9476
ルマン	-11.948
▁ヒカ	-11.9487
▁ステーク	-11.9494
▁ギミ	-11.9497
▁te	-11.9497
ニエ	-11.9502
▁勝て	-11.9504
▁06	-11.9505
▁珍	-11.9509
yl	-11.9511
▁sun	-11.9512
▁いくら	-11.9514
▁選び	-11.9514
▁賭	-11.952
▁トリー	-11.9521
▁コント	-11.9525
▁うけ	-11.9525
ンバー	-11.9527
ンパクト	-11.9529
▁湘南	-11.9531
ペプチド	-11.9531
à	-11.9531
▁august	-11.9531
▁jolla	-11.9531
▁ジェレミー	-11.9531
▁ユグドラシル	-11.9531
▁凄	-11.9531
▁坑	-11.9531
▁奔	-11.9531
▁樺	-11.9531
▁遮	-11.9531
塵	-11.9531
戚	-11.9531
條	-11.9531
濠	-11.9531
灘	-11.9531
祠	-11.9531
貌	-11.9531
鹵	-11.9531
▁ダブルガウス	-11.9531
▁盛り上が	-11.9531
▁目覚め	-11.9531
トカゲ	-11.9531
▁ネイサン	-11.9531
▁ハインツ	-11.9531
▁national	-11.9531
▁美濃	-11.9532
▁能登	-11.9532
▁なぎ	-11.9532
▁avex	-11.9533
▁センチメ	-11.9533
暮れ	-11.9534
フーン	-11.9534
▁ドゥアン	-11.9534
ッティ	-11.9534
テイラー	-11.9535
▁生き残	-11.9535
なら	-11.9535
▁シェア	-11.9537
▁論じ	-11.9537
が丘	-11.9537
▁紐	-11.9539
▁黎	-11.954
▁フランクフルト	-11.954
▁レイチェル	-11.954
▁楽天	-11.954
ベガス	-11.9541
▁ゴム	-11.9542
▁ヤド	-11.9543
▁東海道	-11.9543
▁マイクロ	-11.9543
ぐる	-11.9545
▁由布	-11.9547
▁]]	-11.9548
▁ドミニカ	-11.9548
▁パイプ	-11.9549
▁リアル	-11.955
▁天王	-11.9551
▁157	-11.9553
▁惜し	-11.9553
▁シュヴァ	-11.9554
▁岩谷	-11.9554
▁讃	-11.9555
▁儲け	-11.9555
▁プリキュア	-11.9555
▁トマス	-11.9556
▁何と	-11.9558
▁握り	-11.9558
▁栄え	-11.9558
▁マヤ	-11.956
▁井戸	-11.9561
▁すず	-11.9563
▁安保	-11.9563
gon	-11.9563
▁未知	-11.9564
▁ib	-11.9566
▁深め	-11.9566
▁op	-11.9568
▁常盤	-11.957
サレム	-11.9571
▁斯	-11.9571
▁糾	-11.9571
▁褒	-11.9571
▁角川	-11.9572
ベリ	-11.9572
▁チャーター	-11.9572
▁キッド	-11.9572
ペスト	-11.9572
▁your	-11.9573
▁ファイブ	-11.9573
▁古町	-11.9575
▁落下	-11.9576
▁帯び	-11.9584
▁lp	-11.9587
▁同志	-11.959
▁キス	-11.9591
▁ジャイアント	-11.9594
▁フット	-11.9594
▁うん	-11.9596
サイクル	-11.9601
▁キリ	-11.9602
ダス	-11.9602
▁嚢	-11.9603
▁嫁	-11.9603
▁逢	-11.9603
▁みか	-11.9604
▁フェー	-11.9604
ツァ	-11.9607
▁フォック	-11.961
▁東谷	-11.9611
レル	-11.9614
セント	-11.9615
▁かぶ	-11.9618
▁480	-11.9619
▁据え	-11.9619
▁ディズニー	-11.9619
▁追い出	-11.962
▁soft	-11.9621
ゾン	-11.9621
▁ホット	-11.9629
▁シャン	-11.963
▁実体	-11.9632
▁当事	-11.9637
▁オールド	-11.9638
47	-11.9649
▁暑	-11.9651
▁ノースカ	-11.9652
▁空き	-11.9653
▁610	-11.9658
▁les	-11.9658
▁ショウ	-11.966
▁すき	-11.9663
▁わら	-11.9664
ウー	-11.9668
サス	-11.9675
▁破れ	-11.9678
コンクリ	-11.9679
▁mr	-11.9685
▁プラザ	-11.9691
▁運び	-11.9691
やま	-11.9692
朽	-11.9696
▁割り	-11.9698
▁ステン	-11.9698
がり	-11.97
▁泳ぎ	-11.9701
ルイー	-11.9703
鳴	-11.9705
▁ワタ	-11.9708
幣	-11.9709
薩	-11.9712
▁泊	-11.9723
▁2500	-11.9724
庄	-11.9727
▁国務	-11.9734
▁通し	-11.9738
信徒	-11.9739
▁下ろ	-11.9741
騎	-11.9741
スタント	-11.9746
砕	-11.9747
黙	-11.9747
ne	-11.9749
▁坊	-11.975
▁愛国	-11.9751
揚	-11.9751
潤	-11.9752
働	-11.9752
駒	-11.9755
辰	-11.9755
肥	-11.9756
屈	-11.9756
堤	-11.9756
誘	-11.9757
#	-11.9757
斉	-11.9757
困	-11.9758
丁	-11.9758
冬	-11.9758
撮	-11.9759
若	-11.9759
裏	-11.9759
ざ	-11.9759
▁リュー	-11.9764
▁ミーク	-11.9768
▁乗り出	-11.9769
リティ	-11.9776
▁ウェスラ	-11.978
▁フィン	-11.9784
▁ness	-11.9785
ージャ	-11.9787
▁公務	-11.9789
▁媒	-11.9795
▁レナ	-11.9795
▁カンペ	-11.9801
▁ぴ	-11.9813
作用	-11.9813
le	-11.9814
▁fire	-11.9818
nss	-11.9819
ワード	-11.9824
▁サイレン	-11.983
▁151	-11.9839
ウェ	-11.9849
oru	-11.9856
▁大沢	-11.9859
to	-11.986
ers	-11.9864
▁若く	-11.9866
女子高	-11.9877
▁don	-11.9878
▁ヒン	-11.9885
▁550	-11.9889
▁scal	-11.9899
81	-11.9902
じめ	-11.9907
▁デス	-11.9907
61	-11.9913
止め	-11.9921
国際	-11.9922
▁虫	-11.9929
バーツ	-11.993
▁大江	-11.993
半数	-11.9939
020	-11.9946
八	-11.9954
クセント	-11.9955
▁叩	-11.9959
ティー	-11.9969
▁簿	-11.9969
フォ	-11.9971
▁sa	-11.9972
▁磨	-11.9981
デイ	-11.9982
▁ベロ	-11.9985
ドロ	-11.9989
女学院	-11.999
▁マリナ	-12.0001
▁mol	-12.0003
▁マク	-12.0004
▁シラ	-12.0006
』	-12.0007
▁シチ	-12.0018
▁大東	-12.0023
▁苗	-12.0024
▁アニ	-12.003
オー	-12.0031
▁ウン	-12.0037
▁燃	-12.0038
グモ	-12.0042
▁内山	-12.0055
▁鵜	-12.0057
▁securit	-12.0057
▁·	-12.0057
▁アレルギー	-12.0057
▁シュルーズベリー	-12.0057
▁シンデレラ	-12.0057
▁レプトン	-12.0057
▁偰	-12.0057
▁宙	-12.0057
▁矛	-12.0057
▁聡	-12.0057
▁脂肪	-12.0057
▁茅	-12.0057
▁薩摩	-12.0057
▁諮	-12.0057
▁遼	-12.0057
▁釧	-12.0057
▁陪	-12.0057
▁雍	-12.0057
俣	-12.0057
峙	-12.0057
槻	-12.0057
蛋	-12.0057
詣	-12.0057
諱	-12.0057
▁ジョナサン	-12.0057
▁ゼネラル	-12.0057
▁rott	-12.0057
▁運搬	-12.0057
▁chrome	-12.0057
▁ヒドロキシ	-12.0057
▁駆けつけ	-12.0057
▁たどり着	-12.0057
▁筋肉	-12.0057
▁クレヨン	-12.0057
▁セントルイス	-12.0057
▁ガラクト	-12.0058
▁ギャグ	-12.0058
▁猿投	-12.0058
▁マーフ	-12.0058
▁眺め	-12.0058
▁真珠	-12.0058
▁ハンス	-12.0058
クスノキ	-12.0058
▁東北学院	-12.0059
▁阿佐谷	-12.006
▁淡路	-12.006
▁津久	-12.006
▁pk	-12.0061
▁ナイジェ	-12.0061
▁不適	-12.0062
▁焼け	-12.0062
▁停留	-12.0063
デイヴィス	-12.0063
▁charles	-12.0064
▁思え	-12.0066
▁漸	-12.0067
▁稀	-12.0067
▁sweet	-12.0067
▁カタログ	-12.0067
▁ラリタン	-12.0067
▁石垣	-12.0067
▁デニス	-12.0067
▁理恵	-12.0067
▁ギャング	-12.0067
▁fox	-12.0068
▁尋ね	-12.0069
▁消息	-12.0069
ガイタン	-12.007
▁バクー	-12.0071
▁イノシ	-12.0073
▁掲示	-12.0077
▁覇	-12.0078
化粧	-12.0078
ジオ	-12.0079
▁オノ	-12.008
ヌー	-12.0082
▁加賀	-12.0083
▁懇	-12.0083
▁プリンセス	-12.0083
▁フアン	-12.0084
▁パーカー	-12.0087
▁つば	-12.0089
▁尽き	-12.0091
▁シェー	-12.0098
▁マグマ	-12.0098
▁三河	-12.0099
▁采	-12.01
▁濱	-12.01
▁グローバル	-12.01
▁space	-12.01
▁出かけ	-12.0103
▁泣	-12.0104
▁フィリップ	-12.0107
▁突き出	-12.0108
▁銘打	-12.0111
イド	-12.0112
▁ゾロ	-12.0114
ントン	-12.0115
▁コダック	-12.0117
▁引き取	-12.0119
▁ノート	-12.012
▁シュル	-12.0123
フリー	-12.0126
▁叫	-12.0128
▁クォーク	-12.0129
▁リンゴ	-12.0131
▁161	-12.0131
▁133	-12.0131
▁笛	-12.0133
▁話し合	-12.0135
gk	-12.0136
エス	-12.0136
▁171	-12.0139
▁ゲームセンター	-12.014
▁教職	-12.0141
▁木の	-12.0141
▁用水	-12.0142
シス	-12.0143
ピー	-12.0146
▁穀	-12.015
▁miya	-12.0151
▁may	-12.0151
▁ケープ	-12.0156
▁sky	-12.0157
▁トリオ	-12.0157
▁真似	-12.016
▁マーズ	-12.0163
▁ターン	-12.0165
▁萌	-12.0167
▁コミックス	-12.0168
▁ris	-12.0171
▁一等	-12.0175
▁要する	-12.0183
▁ガード	-12.0187
ずる	-12.019
▁class	-12.0196
▁フォア	-12.0197
▁城下	-12.0201
▁舌	-12.0202
▁plasti	-12.0202
▁駆け	-12.0202
ボーイズ	-12.0202
▁神宮	-12.0204
69	-12.0206
▁日高	-12.0212
▁ちか	-12.0219
トリー	-12.0221
sh	-12.0223
イク	-12.0224
ミントン	-12.0226
ay	-12.0228
▁ビール	-12.0231
▁ホッ	-12.0235
▁掛か	-12.0237
▁スタンド	-12.0237
▁nao	-12.0239
スコ	-12.0241
ッケン	-12.0243
ブー	-12.0247
▁max	-12.0248
リク	-12.0251
▁270	-12.0252
cast	-12.0252
央	-12.0253
▁送り出	-12.0255
▁アフ	-12.0255
イニング	-12.0265
択	-12.0267
65	-12.0267
▁奮	-12.0271
▁横切	-12.0271
ファクトリー	-12.0273
▁カルガ	-12.0276
▁マド	-12.0278
book	-12.028
▁鳴ら	-12.0282
land	-12.0282
サケ	-12.0284
らん	-12.0285
34	-12.0287
早	-12.0288
▁ルーム	-12.0295
粛	-12.0301
ian	-12.0303
▁ラック	-12.0306
した	-12.0306
ジョーンズ	-12.0307
熊	-12.0308
倫	-12.0308
姫	-12.0309
貝	-12.0309
▁-(	-12.0311
宏	-12.0311
農	-12.0311
椎	-12.0311
受	-12.0312
聴	-12.0312
綱	-12.0312
敏	-12.0312
卒	-12.0313
洞	-12.0313
浅	-12.0314
慶長	-12.0314
トライアン	-12.0315
カントリー	-12.0315
▁セリ	-12.0315
▁に関し	-12.0316
▁アーミ	-12.0317
os	-12.0319
張り	-12.0322
05	-12.0324
好き	-12.0339
▁菓子	-12.0341
▁カサ	-12.0345
ボウル	-12.0351
▁ニール	-12.0356
▁bar	-12.0357
▁ナン	-12.0357
体育	-12.0364
▁仰	-12.0382
▁グラビ	-12.0392
▁ヒロ	-12.0395
ho	-12.0396
▁手当	-12.0411
▁授け	-12.0412
ヘイ	-12.0426
ある	-12.0431
▁af	-12.0438
▁バージ	-12.0438
▁地質	-12.0447
▁奈美	-12.0447
▁弦	-12.0453
▁イデ	-12.0456
▁梨	-12.0471
ヴェル	-12.0476
▁おう	-12.0477
▁レフ	-12.0484
▁こま	-12.0487
▁gl	-12.0487
ゴー	-12.0491
▁セルフ	-12.0492
クラン	-12.0496
▁can	-12.0512
▁long	-12.0524
ever	-12.053
ロール	-12.0537
▁mv	-12.0538
hc	-12.0548
▁ルーマ	-12.0558
▁スティーブ	-12.0567
▁カッ	-12.0571
▁シール	-12.0574
▁iso	-12.0575
▁マッカ	-12.058
▁anti	-12.058
▁revo	-12.0583
足立	-12.0583
▁獄	-12.0584
▁jp	-12.0587
▁筑波大	-12.0587
▁スコア	-12.0593
j	-12.0596
▁筒	-12.0597
テール	-12.0601
▁トレーディング	-12.0607
ior	-12.0609
メト	-12.0611
▁present	-12.0613
▁アームストロング	-12.0613
▁絆	-12.0613
▁芙	-12.0613
▁蕭	-12.0613
▁諫	-12.0613
▁鄭	-12.0613
▁鋳	-12.0613
椅	-12.0613
榴	-12.0613
鋒	-12.0613
▁レオナルド	-12.0613
▁伊丹	-12.0613
▁ゴシック	-12.0613
▁グレッグ	-12.0613
▁引っ越	-12.0613
▁振る舞	-12.0613
▁アサヒ	-12.0613
▁立ち上が	-12.0613
▁エンツォ	-12.0613
▁ユクシー	-12.0613
▁聞こえ	-12.0613
▁ヘクター	-12.0613
▁マインツ	-12.0613
ステーツ	-12.0613
holder	-12.0613
▁ヤミ	-12.0613
▁溢れ	-12.0613
▁信濃	-12.0613
▁sport	-12.0614
ゴメス	-12.0614
クロスオーバー	-12.0614
▁彦根	-12.0614
▁ホワイトハウス	-12.0614
フォーマット	-12.0615
ネスコ	-12.0615
▁http	-12.0615
エムリット	-12.0615
summer	-12.0616
▁フロア	-12.0617
▁浮世	-12.0617
▁アメリー	-12.0617
▁またが	-12.0617
▁農林	-12.0618
▁くださ	-12.0618
▁hush	-12.062
▁サンサ	-12.0621
▁ケイト	-12.0621
▁先祖	-12.0622
▁ラーメン	-12.0622
▁怖	-12.0622
▁味噌	-12.0623
▁テコンドー	-12.0623
▁ホイール	-12.0623
▁吉祥	-12.0624
▁group	-12.0624
オロギ	-12.0625
▁センサー	-12.0625
▁整え	-12.0627
▁クレア	-12.0627
ビング	-12.0628
▁ボルト	-12.0628
タグラフ	-12.0629
ful	-12.0629
▁nm	-12.0631
▁ロベルト	-12.0633
▁girl	-12.0635
ンジャー	-12.0635
▁タイソン	-12.0636
▁ツイー	-12.0639
▁佑	-12.064
▁マスト	-12.064
▁クリエイティブ	-12.064
▁アトランティックシティ	-12.064
▁アンテナ	-12.064
▁sound	-12.0641
▁キャッツ	-12.0642
ステップ	-12.0643
クラフト	-12.0643
▁遣	-12.0643
▁クラーク	-12.0643
▁アシル	-12.0643
▁revoc	-12.0643
▁ジェフリー	-12.0643
▁体温	-12.0645
ニール	-12.0646
▁ダケ	-12.0647
▁ランニング	-12.0648
ギング	-12.0652
▁儒	-12.0658
▁迅	-12.0658
▁紡	-12.0658
▁おも	-12.0658
▁エリオット	-12.0658
▁アラバ	-12.0659
ist	-12.0659
畿	-12.0659
ガンダ	-12.0661
bl	-12.0663
▁タコ	-12.0666
ったん	-12.0667
ラジオ	-12.0672
▁ベーシ	-12.0672
▁松原	-12.0673
▁下さ	-12.0675
▁凶	-12.0675
▁ヨハン	-12.0676
▁』(	-12.0676
そう	-12.0676
▁寄生	-12.0677
▁last	-12.068
▁ビリ	-12.0681
▁マスターズ	-12.0683
▁オフィシャル	-12.0684
psp	-12.0684
▁立た	-12.0685
イット	-12.0687
▁line	-12.0701
ロボ	-12.0707
▁グッド	-12.0708
▁ホールディング	-12.0712
▁東京教育大	-12.0713
オリオン	-12.0714
レンガ	-12.0716
af	-12.072
▁ラファエ	-12.0724
ナップ	-12.0724
▁コリン	-12.0731
▁松下	-12.0731
▁ベト	-12.0731
▁ディヴィ	-12.0735
ウォーズ	-12.0737
ひ	-12.0737
▁キミ	-12.0742
▁知れ	-12.0743
▁クリプ	-12.0744
▁中川	-12.0746
▁嘆	-12.0748
然と	-12.0748
ウィング	-12.0749
矢板	-12.0752
ボウ	-12.0753
▁レコ	-12.0754
▁カロ	-12.0759
▁big	-12.0766
▁錯	-12.0766
▁ユーモ	-12.0775
▁濃い	-12.0776
ラクトン	-12.0784
▁穏	-12.0784
▁張り	-12.0786
▁フルク	-12.079
▁ぷ	-12.0795
▁腫	-12.0797
ブラ	-12.0801
▁セタ	-12.0801
▁セガ	-12.0802
▁凡	-12.0802
v	-12.0806
スピア	-12.081
▁ウィス	-12.081
▁まみ	-12.0812
とり	-12.0813
クロス	-12.0815
▁くじ	-12.0816
pc	-12.0822
59	-12.0826
ストーン	-12.0836
▁個々	-12.0836
▁ベルン	-12.0838
ゴリ	-12.0839
▁帆	-12.0839
tr	-12.084
▁play	-12.0843
ラール	-12.0852
ヨナ	-12.0853
▁重点	-12.0854
▁ともな	-12.0858
ream	-12.0859
▁広め	-12.0861
▁住ま	-12.0863
up	-12.0867
▁リバー	-12.087
▁アルギ	-12.0875
切れ	-12.0875
っこ	-12.0878
▁ミサ	-12.0879
ガール	-12.088
▁セグ	-12.0881
▁ひさ	-12.0881
▁ストック	-12.0881
▁造り	-12.0882
諭	-12.0884
嘱	-12.0887
窮	-12.089
播	-12.0891
ウエスト	-12.0892
菓子	-12.0893
アントニオ	-12.0895
軟	-12.0897
郭	-12.0898
鹿	-12.0899
灯	-12.09
甲	-12.09
慶	-12.09
フェラー	-12.0901
コロンビア	-12.0901
瞬	-12.0901
マラソン	-12.0901
傍	-12.0901
忠	-12.0902
七	-12.0902
酵	-12.0902
夢	-12.0902
yac	-12.0905
ごと	-12.0905
ブランド	-12.0906
▁850	-12.0908
ive	-12.0909
▁スタン	-12.091
グラス	-12.0913
ルキア	-12.0916
ヘッド	-12.0918
ヴェ	-12.0919
▁スパー	-12.0924
▁銘	-12.093
▁kom	-12.0939
▁アルバ	-12.0949
▁黙	-12.0949
▁ム	-12.095
明け	-12.0953
カーン	-12.0955
ビアン	-12.0958
▁俗	-12.0963
mb	-12.0966
▁ダー	-12.0967
▁いず	-12.0975
▁シンジ	-12.0988
▁広ま	-12.0988
▁捕ま	-12.0991
▁ピラ	-12.0993
デント	-12.0993
▁オセ	-12.1007
▁っぽ	-12.1009
▁カントリー	-12.1011
ツェル	-12.1012
▁ステー	-12.1015
んじ	-12.1018
net	-12.1021
フィア	-12.1021
▁シド	-12.1034
▁dr	-12.1039
ックル	-12.104
サウス	-12.1045
▁ケア	-12.1047
▁活か	-12.1049
▁イス	-12.105
育て	-12.1051
▁ストレ	-12.1061
▁da	-12.1064
ix	-12.1067
ラノ	-12.1068
シカ	-12.107
リル	-12.1073
▁アシ	-12.1076
▁なみ	-12.1079
▁帰り	-12.1079
ンナ	-12.1081
58	-12.1085
▁ワゴ	-12.1101
▁jud	-12.1102
▁クオリティ	-12.1104
▁リック	-12.1105
cm	-12.111
ニス	-12.1113
▁cb	-12.1116
▁tra	-12.1118
▁he	-12.1124
少な	-12.1127
▁ms	-12.1129
フォロー	-12.1136
▁ミネ	-12.1143
▁ギャ	-12.1144
ゲット	-12.1147
ini	-12.1152
めん	-12.1152
▁泣き	-12.1155
リベロ	-12.1157
eam	-12.1159
▁プリン	-12.1163
▁chos	-12.1169
▁エントリ	-12.117
▁レンジ	-12.1181
▁acyl	-12.1185
▁殴	-12.1187
▁打ち合	-12.1189
▁嗅	-12.1192
oon	-12.1196
▁大田	-12.1196
學	-12.1199
はし	-12.1199
▁叶	-12.12
ウィルクスバリ	-12.1201
θ	-12.1201
▁saikai	-12.1201
▁ガーリチ	-12.1201
▁叢	-12.1201
▁委ね	-12.1201
▁稗	-12.1201
▁貯水	-12.1201
▁辿	-12.1201
▁閑	-12.1201
プログラミング	-12.1201
堡	-12.1201
婆	-12.1201
捏	-12.1201
栖	-12.1201
泌	-12.1201
癖	-12.1201
穫	-12.1201
竺	-12.1201
耗	-12.1201
茜	-12.1201
諜	-12.1201
▁ウォリントン	-12.1201
ブランズウィック	-12.1201
▁amazon	-12.1201
▁おもちゃ	-12.1201
▁八王子	-12.1201
▁奄美	-12.1201
▁gnu	-12.1201
▁インディアナ	-12.1201
▁宝塚歌劇	-12.1201
▁引き換え	-12.1201
▁書き下ろ	-12.1201
▁盛り上げ	-12.1201
▁パルメット	-12.1201
▁秩父	-12.1201
▁socie	-12.1201
エナン	-12.1201
ヴァイラー	-12.1201
▁road	-12.1201
▁チャイナ	-12.1201
▁見つめ	-12.1202
▁ジョチ	-12.1202
▁留守	-12.1202
▁漏れ	-12.1202
▁david	-12.1202
▁アーチ	-12.1202
▁オクラ	-12.1203
▁ジャスティン	-12.1203
▁噴火	-12.1203
▁由貴	-12.1203
▁スピル	-12.1203
▁飛鳥	-12.1204
▁染め	-12.1204
▁武蔵野	-12.1204
▁武庫	-12.1204
▁ジュリー	-12.1205
ica	-12.1205
▁リベラル	-12.1205
▁ポケモンスタジアム	-12.1206
▁受け止め	-12.1206
アドバイザー	-12.1207
▁マザー	-12.1208
▁プロパ	-12.1208
▁見かけ	-12.1208
プンダ	-12.1209
ネッサ	-12.1209
▁奨学	-12.121
▁guitar	-12.1211
▁ニュータウン	-12.1212
▁スクーカル	-12.1212
▁魯	-12.1212
▁笹	-12.1212
▁缶	-12.1212
▁錬	-12.1212
▁zero	-12.1212
▁刈り	-12.1212
▁データベース	-12.1212
▁ロビンソン	-12.1213
▁アレ	-12.1213
▁木製	-12.1213
▁クリップ	-12.1215
isu	-12.1215
▁三塁	-12.1217
ユキノ	-12.1217
▁パナ	-12.1217
▁秋葉	-12.1218
ガーランド	-12.1219
▁オット	-12.1219
▁スキル	-12.1219
▁武蔵	-12.1221
▁みよ	-12.1223
▁サード	-12.1223
▁盗み	-12.1223
▁pal	-12.1225
▁椿	-12.123
ップリン	-12.123
▁コールド	-12.1231
)。	-12.1231
▁アワー	-12.1232
▁いざ	-12.1234
▁スギ	-12.1234
▁不完全	-12.1236
▁おこ	-12.1236
▁いじめ	-12.1242
ントル	-12.1243
ハンブルク	-12.1244
▁205	-12.1245
▁折り	-12.1245
▁come	-12.1246
▁uk	-12.1246
▁ボイラ	-12.1246
スカル	-12.1248
▁曳	-12.1249
▁プラズマ	-12.1249
▁テンポ	-12.1249
マナー	-12.125
ンガー	-12.125
▁エリカ	-12.1252
▁白井	-12.1253
リーナ	-12.1253
アス	-12.1255
グレン	-12.1256
▁ナオ	-12.1256
▁ヒメ	-12.1258
▁プリンス	-12.1258
タミン	-12.1261
▁ポケモンセンター	-12.1263
▁漠	-12.1264
▁都営	-12.1267
▁詰め	-12.1267
▁湊	-12.1268
▁紺	-12.1268
ライズ	-12.1269
▁レディング	-12.127
かく	-12.1273
▁真一	-12.1275
▁とらえ	-12.1277
▁インベス	-12.128
イジング	-12.1281
ether	-12.1283
▁筑	-12.1286
▁治め	-12.1286
▁賓	-12.1287
▁長岡	-12.1287
▁騒ぎ	-12.1288
▁シュガー	-12.129
▁詰ま	-12.1292
016	-12.1294
▁上山	-12.1299
ループ	-12.13
▁ワー	-12.1304
▁怠	-12.1306
▁おし	-12.1306
▁ヒョウ	-12.1308
▁検事	-12.1308
▁健太	-12.1309
博覧	-12.1311
▁架か	-12.1313
ヴィン	-12.1314
チャット	-12.1317
▁ぽ	-12.1318
▁コミカ	-12.1322
▁led	-12.1325
▁箕	-12.1325
85	-12.1325
fk	-12.1332
▁カレン	-12.1336
ヨウ	-12.1337
▁mtb	-12.1344
▁おと	-12.1346
ショット	-12.1349
▁大友	-12.136
▁杵	-12.1364
▁マドリード	-12.1364
▁paul	-12.1365
▁晶	-12.1366
76	-12.1368
▁コイ	-12.1371
▁北海	-12.1375
▁マイヤー	-12.1376
▁大河	-12.1381
▁領事	-12.1382
メー	-12.1387
▁マニ	-12.1388
デオン	-12.1397
▁ダンディ	-12.1398
▁ヴォル	-12.1398
▁浴	-12.14
▁end	-12.1402
▁アム	-12.1405
▁チリ	-12.1406
77	-12.1408
▁新井	-12.1408
ロイド	-12.1409
pp	-12.1414
フィー	-12.1419
ドレス	-12.1431
ヒー	-12.1431
▁払い	-12.1434
ルトゥー	-12.1437
▁中南	-12.1439
▁呼び出	-12.1441
ラーズ	-12.1442
エステ	-12.1442
▁棋	-12.1442
ski	-12.1442
糧	-12.1444
ャーク	-12.1452
▁モス	-12.1453
▁アプロー	-12.1457
ball	-12.1464
ツェ	-12.1465
▁asia	-12.1467
ヒント	-12.1469
▁リレ	-12.1471
▁ゾ	-12.1473
懐	-12.1477
▁ht	-12.1482
▁非合	-12.1487
▁ぱ	-12.1487
▁sd	-12.1488
ソー	-12.1492
▁ノック	-12.1495
宇	-12.1498
廊	-12.1502
▁易	-12.1502
ーヴィス	-12.1503
蒙	-12.1505
聞	-12.1507
滑	-12.151
塩	-12.151
▁求	-12.1518
惨	-12.1519
▁サウジ	-12.1519
呈	-12.1519
ルーツ	-12.152
▁ウエスト	-12.1521
翔	-12.1521
▁播	-12.1521
崩	-12.1522
登	-12.1522
乳	-12.1522
lost	-12.1523
チカ	-12.1523
嵐	-12.1523
鋭	-12.1523
遂	-12.1524
インターナショナル	-12.1524
旅客	-12.1524
:	-12.1525
粒	-12.1526
コミュニティ	-12.1526
予	-12.1526
軌	-12.1527
昌	-12.1527
メキシコ	-12.1527
侍	-12.1527
披露	-12.1527
顧	-12.1527
責	-12.1527
訓	-12.1527
ひろ	-12.1528
めぐ	-12.1539
▁フェイ	-12.1543
ank	-12.1547
アクセ	-12.1549
大陸	-12.156
▁大川	-12.1586
▁シアト	-12.1589
ヒュー	-12.1591
連れ	-12.1595
たら	-12.1597
▁疫	-12.1602
ッテン	-12.1603
ie	-12.1605
▁塗り	-12.1608
▁カウンセ	-12.1608
クレ	-12.1612
▁bm	-12.1614
自動	-12.1616
▁襲い	-12.1619
シャル	-12.162
ケル	-12.1622
▁かば	-12.1623
ham	-12.1624
▁bell	-12.1635
out	-12.164
パイ	-12.1643
動物	-12.1644
▁公民	-12.1645
らし	-12.1657
リボン	-12.1657
mo	-12.1658
▁134	-12.1659
gram	-12.1664
▁バク	-12.1677
▁食い	-12.1679
▁掛	-12.168
▁gi	-12.1681
アーツ	-12.1685
▁gh	-12.169
▁ta	-12.1692
▁クル	-12.1695
ラシア	-12.1695
▁507	-12.1696
▁220	-12.1699
▁市川	-12.1703
詰	-12.1708
たち	-12.1709
el	-12.1711
イザー	-12.1711
▁毅	-12.1714
ズバーグ	-12.1719
ーチェ	-12.1721
▁小売	-12.1723
アンズ	-12.1729
さと	-12.1734
au	-12.1736
ness	-12.1737
ユタ	-12.174
グアノ	-12.1743
▁ロール	-12.1745
スナー	-12.1751
▁サク	-12.1759
ベリア	-12.1764
▁wow	-12.1765
▁ラウ	-12.1768
▁オーブ	-12.1768
スティック	-12.1772
▁genera	-12.1781
▁あお	-12.1785
▁参事	-12.1786
▁繰り	-12.1787
▁("")	-12.1789
▁凝	-12.1791
ンドレス	-12.1794
79	-12.1796
saur	-12.1809
▁アルモ	-12.1809
▁ハム	-12.1816
▁ヨハネ	-12.1816
▁ia	-12.1822
▁ヤツデ	-12.1823
▁-」	-12.1824
▁翰	-12.1826
▁匂	-12.1826
$	-12.1826
γ	-12.1826
▁マイアミ	-12.1826
▁冗	-12.1826
▁如何	-12.1826
▁宛	-12.1826
▁櫻	-12.1826
▁瑩	-12.1826
▁窃	-12.1826
▁菱	-12.1826
▁蒼	-12.1826
▁蔓	-12.1826
▁薨	-12.1826
▁貯蔵	-12.1826
▁頑張	-12.1826
姪	-12.1826
巾	-12.1826
慌	-12.1826
憩	-12.1826
戍	-12.1826
滴	-12.1826
瞭	-12.1826
聘	-12.1826
蛹	-12.1826
衡	-12.1826
邉	-12.1826
酬	-12.1826
▁ホリプロ	-12.1826
▁キャサリン	-12.1826
▁グリポサウル	-12.1826
▁プリムローズ	-12.1826
▁リッチモンド	-12.1826
▁鍛え	-12.1826
▁スプートニク	-12.1826
▁メルセデス	-12.1826
▁サミュエル	-12.1826
▁セルゲイ	-12.1826
▁コロコロ	-12.1826
▁釣魚	-12.1826
▁阿曽	-12.1826
▁スピンオフ	-12.1826
▁西彼	-12.1826
type	-12.1826
▁ケヴィン	-12.1826
▁デイヴィッド	-12.1826
▁コンピレーション	-12.1826
▁雫石	-12.1826
▁collecti	-12.1826
▁サンマリン	-12.1826
▁友禅	-12.1826
▁慈眼	-12.1826
▁ショートトラック	-12.1826
▁埋め立て	-12.1826
▁すれ違	-12.1827
▁みどり	-12.1827
基督教	-12.1827
▁speed	-12.1827
▁sony	-12.1827
▁オタマ	-12.1827
▁無駄	-12.1827
▁ポルノ	-12.1827
ヴェツ	-12.1827
▁ブルックリン	-12.1827
▁並べ	-12.1827
▁津軽石	-12.1828
▁アルジェ	-12.1828
▁アシスト	-12.1828
▁仕上が	-12.1828
▁ハイスクール	-12.1828
▁コロナ	-12.1829
フェルド	-12.1829
▁アンディ	-12.183
▁仲良	-12.183
フェルト	-12.1831
▁絶え	-12.1832
▁クマ	-12.1833
▁スウィー	-12.1834
▁ロイヤリ	-12.1834
ウォン	-12.1834
▁返り咲	-12.1835
▁しゅう	-12.1836
▁ヨハネス	-12.1836
▁頬	-12.1837
▁~	-12.1837
▁唄	-12.1837
▁梶	-12.1837
▁臥	-12.1837
▁ρ	-12.1837
▁抹	-12.1837
▁蒲	-12.1837
▁リヴァプール	-12.1837
▁カンファレンス	-12.1837
▁ブリスコラ	-12.1838
▁ミシェル	-12.1838
▁くさ	-12.1838
▁パルミラ	-12.1839
▁レシー	-12.1839
▁隙間	-12.1839
▁ドバイ	-12.1839
▁ルーキー	-12.184
▁jbc	-12.184
▁マディ	-12.184
▁ゴン	-12.1841
理科	-12.1841
▁飯田	-12.1843
▁ユーザ	-12.1843
▁ヘレン	-12.1843
▁マルクス	-12.1843
▁どんど	-12.1844
▁ドット	-12.1846
▁ボニ	-12.1847
▁ふと	-12.1848
▁ティー	-12.1848
▁back	-12.1849
ジスト	-12.185
▁クック	-12.1851
▁メロン	-12.1852
カチュー	-12.1853
▁尺	-12.1857
▁循	-12.1857
▁撫	-12.1857
▁アンノーン	-12.1857
▁サタ	-12.1857
リウス	-12.1857
▁那須	-12.1857
▁曽根	-12.1857
▁ハンセン	-12.1857
▁セルバーグ	-12.1858
▁満ち	-12.1859
▁face	-12.1861
アンコール	-12.1861
エフ	-12.1862
▁タッチ	-12.1867
▁park	-12.1872
▁誘い	-12.1874
▁兎	-12.1877
▁カジノ	-12.1877
▁123	-12.1879
▁スカート	-12.1879
トリウム	-12.188
ソープ	-12.1882
armat	-12.1884
▁オイル	-12.1885
▁ミカ	-12.1885
▁特攻	-12.1888
▁スプー	-12.1891
▁キール	-12.1892
▁フォート	-12.1892
マング	-12.1893
▁ミニー	-12.1894
ンブルク	-12.1895
▁まと	-12.1898
薬品	-12.1898
▁径	-12.19
▁留め	-12.1901
▁公安	-12.1901
▁タフ	-12.1902
ジェンズ	-12.1905
▁god	-12.1908
▁権現	-12.191
▁取り巻	-12.1911
▁240	-12.1915
ダール	-12.1916
ーヒー	-12.1917
シャン	-12.1917
▁デッド	-12.1918
▁かお	-12.1918
▁ヴァル	-12.1919
▁西土	-12.192
▁シーホー	-12.1924
ゼー	-12.1925
▁gu	-12.193
▁オオバ	-12.193
▁ぼう	-12.1934
▁不利	-12.1936
▁おち	-12.1938
erial	-12.194
hh	-12.1947
▁ウマ	-12.1952
▁疎	-12.1953
▁つと	-12.1955
▁冷た	-12.1959
▁break	-12.1959
▁日産	-12.1963
▁ウラ	-12.1965
31	-12.1966
メータ	-12.1971
▁ヘア	-12.1971
▁ヒラ	-12.1973
tic	-12.1978
▁岐	-12.1978
▁牢	-12.1979
▁ハリ	-12.1981
▁1300	-12.1985
文科	-12.1986
48	-12.1987
▁作り出	-12.1992
▁ワ	-12.1996
ドラ	-12.2
▁down	-12.2
グロ	-12.2006
▁ima	-12.2008
▁釣	-12.201
▁ヴァ	-12.2013
itz	-12.2013
ぱい	-12.2015
▁ハマ	-12.2017
マルチ	-12.2025
▁中高	-12.2025
▁イザ	-12.2026
ニスト	-12.2032
フィリーズ	-12.2037
▁習い	-12.2045
tma	-12.2045
カイ	-12.2045
▁タイガー	-12.2047
▁散り	-12.2053
▁左衛門	-12.2053
▁ウォルト	-12.2059
▁law	-12.206
トリエ	-12.2071
▁引き出	-12.2072
▁139	-12.2073
▁taka	-12.2074
▁見返	-12.2075
45	-12.208
▁マクロ	-12.2082
▁死に	-12.2083
▁メタ	-12.2084
しょう	-12.2095
ae	-12.2097
年度	-12.21
ちん	-12.2101
▁ab	-12.2102
ジム	-12.2103
リエ	-12.2105
dies	-12.2115
まわり	-12.2121
cr	-12.2127
タンク	-12.2128
sil	-12.2129
▁ロビー	-12.2135
▁トゥーロ	-12.2136
カナ	-12.2139
ブルド	-12.214
▁オオ	-12.2144
▁ed	-12.2144
▁440	-12.2144
▁おおい	-12.2145
▁エス	-12.2147
ます	-12.2149
汁	-12.2151
ニル	-12.2152
枢	-12.2153
モラ	-12.2158
▁スターリン	-12.216
▁エゾ	-12.216
信越	-12.2162
茶屋	-12.2166
バッハ	-12.2168
▁窮	-12.2168
at	-12.2169
厚	-12.2171
釣	-12.2182
あたっ	-12.2183
架	-12.2185
▁ファレ	-12.2186
浄	-12.2186
ミーク	-12.2189
墜	-12.219
▁粛	-12.219
帳	-12.219
カルテル	-12.219
ゴール	-12.2191
粉	-12.2191
浪	-12.2191
肩	-12.2192
グローブ	-12.2192
微	-12.2192
荻	-12.2192
▁102	-12.2193
佳	-12.2193
アカデミー	-12.2193
サウンド	-12.2193
宇都宮	-12.2194
衝	-12.2194
バージョン	-12.2194
▁エルン	-12.2199
ノース	-12.2201
nh	-12.2206
▁van	-12.2214
ヤン	-12.2214
トゥス	-12.2217
婦人	-12.2219
ギリ	-12.2226
レイル	-12.2229
ルシア	-12.2233
ロフ	-12.2236
▁ゴリ	-12.2237
▁take	-12.2244
td	-12.2247
ツボ	-12.2251
▁アユ	-12.2251
▁トライア	-12.2252
ワークス	-12.2265
▁コペ	-12.2266
通信	-12.2266
ミル	-12.2269
ブリッジ	-12.2271
▁wil	-12.2277
▁依然	-12.2279
▁うら	-12.2282
▁ng	-12.2284
キャ	-12.2284
▁テラ	-12.2289
ストロ	-12.229
サール	-12.2291
go	-12.2291
▁マルセ	-12.23
▁731	-12.2305
少年	-12.2308
▁280	-12.231
ese	-12.2315
アラー	-12.2316
▁398	-12.2318
.,	-12.2319
ストック	-12.232
▁カエ	-12.2329
バンダ	-12.2332
▁ol	-12.2332
コウ	-12.2333
▁ブレー	-12.2334
ステージ	-12.2335
▁inter	-12.2336
▁モニタ	-12.2344
▁hina	-12.2346
リバー	-12.2348
pe	-12.2352
ゆ	-12.2353
▁そん	-12.237
▁突き	-12.2376
▁ブロー	-12.2377
りこ	-12.2389
▁エルフ	-12.2401
ニックス	-12.2403
ova	-12.2405
ッパー	-12.2413
▁きっ	-12.2414
▁サミー	-12.2415
▁エキ	-12.2426
▁121	-12.2429
38	-12.2441
チャージ	-12.2442
▁deoxy	-12.2444
ペイ	-12.2451
ルーン	-12.246
▁ミノ	-12.2461
▁絞り	-12.2462
クション	-12.2464
レード	-12.2467
▁アルコ	-12.247
▁カーン	-12.2473
洋艦	-12.2474
▁ナツ	-12.2476
シャス	-12.2477
▁引っ張	-12.2477
▁忌	-12.2478
▁相応	-12.2478
タイア	-12.2484
▁レディ	-12.2485
▁ファイナ	-12.2489
リベラ	-12.2489
▁好ま	-12.249
▁アパレル	-12.2491
▁駿	-12.2492
ν	-12.2493
▁international	-12.2493
▁}	-12.2493
▁スヴャトスラフ	-12.2493
▁ニンテンドー	-12.2493
▁ノヴゴロド	-12.2493
▁ブコヴィナ	-12.2493
▁レバノン	-12.2493
▁仇	-12.2493
▁儁	-12.2493
▁兗	-12.2493
▁匡	-12.2493
▁愛宕	-12.2493
▁扶	-12.2493
▁揖	-12.2493
▁毘沙門	-12.2493
▁脛	-12.2493
▁花崗	-12.2493
▁蓬莱	-12.2493
▁詐	-12.2493
▁鄒	-12.2493
▁頁	-12.2493
埠	-12.2493
實	-12.2493
繍	-12.2493
薇	-12.2493
虔	-12.2493
趙	-12.2493
踪	-12.2493
鞘	-12.2493
驃	-12.2493
▁アコースティック	-12.2493
▁アントルシャ	-12.2493
▁セレビィ	-12.2493
▁tomato	-12.2493
▁あふれ	-12.2493
▁ホウエン	-12.2493
▁菩提	-12.2493
▁ミロシュ	-12.2493
▁シンボル	-12.2493
モロコ	-12.2493
▁ボウラー	-12.2493
▁nsaid	-12.2493
▁コカイン	-12.2493
▁恵那	-12.2493
▁芥川	-12.2493
▁プノン	-12.2493
▁マスコット	-12.2493
▁叶え	-12.2493
▁エンジュ	-12.2494
▁讃え	-12.2494
▁執り行	-12.2494
コンシン	-12.2494
▁間に合	-12.2494
シンキ	-12.2494
▁宇多	-12.2494
▁ジェイソン	-12.2494
▁パトリック	-12.2495
900	-12.2495
▁vocal	-12.2495
レコーズ	-12.2495
▁痛め	-12.2495
▁頭蓋	-12.2495
▁間違え	-12.2496
▁bass	-12.2496
▁コラム	-12.2496
▁膨らま	-12.2496
▁移り住	-12.2496
▁チオエステ	-12.2497
▁ダラス	-12.2497
▁eso	-12.2499
▁american	-12.2499
▁パンツ	-12.2499
ッチャマ	-12.25
▁コントローラ	-12.25
▁georg	-12.25
▁ダート	-12.2501
ウト	-12.2502
バーン	-12.2503
▁hr	-12.2505
▁魚住	-12.2505
▁炉	-12.2505
▁甄	-12.2505
▁馮	-12.2505
▁ロボッツ	-12.2505
▁ステロイド	-12.2505
▁バッテリー	-12.2505
▁木曽	-12.2505
pfi	-12.2505
▁明太	-12.2505
▁ホンダ	-12.2506
▁帝王	-12.2507
▁ドキュメント	-12.2507
nasa	-12.2507
▁アトラス	-12.2508
▁マッド	-12.2508
▁ミスター	-12.2508
▁捕え	-12.2508
▁バディ	-12.2508
▁studio	-12.2508
▁亀田	-12.251
▁ターナ	-12.2511
▁区切	-12.2511
▁スマ	-12.2511
▁不二	-12.2513
▁グルメ	-12.2517
ガット	-12.2517
▁全盛	-12.2519
モモ	-12.2521
▁北条	-12.2524
▁竹野	-12.2524
▁主税	-12.2524
▁′	-12.2526
▁σ	-12.2526
▁デバイス	-12.2526
▁峡	-12.2526
▁キリアン	-12.2526
▁ミリオン	-12.2527
▁言い渡	-12.2529
▁キラー	-12.2532
加速器	-12.2533
▁三段	-12.2536
lc	-12.2537
▁コック	-12.2539
▁デオキシリボ	-12.2541
ster	-12.2542
▁ピア	-12.2543
▁アイアン	-12.2544
▁踏み切	-12.2546
▁system	-12.2547
▁隷	-12.2548
がっこう	-12.2553
▁究	-12.2554
▁ロジャース	-12.2557
▁サバ	-12.256
コート	-12.2562
▁アップル	-12.2563
▁延び	-12.2564
▁たった	-12.2564
▁ref	-12.2565
▁観音	-12.2568
▁瀧	-12.2569
▁最下	-12.257
オス	-12.257
ーブス	-12.2571
テレビジョン	-12.2575
▁ユリ	-12.2576
▁フラワー	-12.258
ノア	-12.258
▁キルギス	-12.2583
トーレ	-12.2584
ガング	-12.2586
▁野村	-12.2589
▁頓	-12.2591
▁シンク	-12.2592
▁サーチ	-12.2593
▁マフ	-12.2594
▁ハク	-12.2595
▁高野	-12.2596
ナノ	-12.2598
エー	-12.26
ディン	-12.2602
▁やら	-12.2609
▁新町	-12.2609
unting	-12.2612
▁デュアル	-12.2613
▁添え	-12.2614
トース	-12.2617
ルドン	-12.2617
そり	-12.2617
▁バド	-12.2621
fa	-12.2621
▁間近	-12.2623
▁スニー	-12.2627
トランス	-12.2631
▁イチ	-12.2631
cia	-12.2634
▁ベア	-12.2635
▁ウィルソン	-12.2637
▁プレーヤー	-12.2637
▁発起	-12.2641
▁ヴァイ	-12.2647
▁ザグ	-12.2652
▁ポリシ	-12.2653
ムー	-12.2654
▁どし	-12.2656
▁知能	-12.2656
▁秩	-12.2656
ドロップ	-12.2657
▁パニック	-12.2658
shi	-12.2664
ディエ	-12.2665
ベス	-12.2666
日テレ	-12.2668
エンヌ	-12.2669
▁カルト	-12.267
▁カウ	-12.267
▁グア	-12.2675
オリ	-12.2675
▁hous	-12.2676
▁澄	-12.2679
▁おや	-12.268
▁トロイ	-12.2681
、「	-12.2684
ーマ	-12.2686
illa	-12.2695
サーブ	-12.27
ムシ	-12.2701
ェイミ	-12.2701
▁築き	-12.2701
レスト	-12.2708
▁ナイン	-12.271
▁田子	-12.2718
を	-12.2725
ノズ	-12.2726
レッド	-12.2726
▁一橋大	-12.2729
▁her	-12.2736
まち	-12.2739
▁エム	-12.2741
▁ディナ	-12.2742
▁ヴァー	-12.2746
▁訂	-12.2746
天堂	-12.2747
おけ	-12.2749
itch	-12.2751
▁金山	-12.2753
ルゲン	-12.276
▁つづ	-12.2764
ウォード	-12.2765
▁大気	-12.2776
res	-12.2776
▁ストア	-12.2777
▁レー	-12.2777
▁神田	-12.2777
gen	-12.278
▁ミツ	-12.278
欺	-12.2782
ゴス	-12.2784
945	-12.2786
▁con	-12.2787
ワープ	-12.2788
▁たいし	-12.2807
▁ファンク	-12.281
▁api	-12.2814
ting	-12.2815
ペル	-12.2818
ほ	-12.2819
▁吉本	-12.2826
狂	-12.2829
"")	-12.2831
▁アーツ	-12.2837
▁ホーン	-12.2842
▁おじ	-12.2846
▁確か	-12.285
遍	-12.2855
ーゲン	-12.2857
テュディ	-12.2861
まか	-12.2861
▁141	-12.2862
パム	-12.2865
輿	-12.2867
渕	-12.2868
▁cf	-12.2869
▁fu	-12.2878
▁ce	-12.2878
▁軸受	-12.288
宴	-12.2884
滝	-12.2885
乞	-12.2887
吏	-12.2887
ルトン	-12.2889
尿	-12.2891
▁明け	-12.2896
ランズ	-12.2897
坊	-12.2899
サンダー	-12.2902
蘇	-12.2903
悩	-12.2904
琴	-12.2904
セントラル	-12.2905
万	-12.2905
チャイルド	-12.2905
梁	-12.2906
糸	-12.2906
嫌	-12.2907
フィゲロア	-12.2907
簡	-12.2908
太平洋	-12.2908
紅	-12.2908
至	-12.2908
双	-12.2908
暴	-12.2908
レーベル	-12.291
▁伏	-12.2911
▁car	-12.2912
tendo	-12.2923
▁-』(	-12.2925
リーマン	-12.2929
レスラー	-12.2932
▁ノリ	-12.2932
▁sm	-12.2935
▁クルス	-12.2937
クル	-12.2946
989	-12.2948
▁あや	-12.2952
オール	-12.2961
▁番外	-12.2962
▁セン	-12.2964
ウォー	-12.2965
モー	-12.2966
とこ	-12.2968
▁usg	-12.2969
▁ボゴ	-12.2972
▁tru	-12.2974
▁cp	-12.2977
▁kei	-12.2978
ルダー	-12.298
▁くろ	-12.2985
サギ	-12.3001
▁home	-12.3002
yama	-12.3002
▁expo	-12.3003
テス	-12.3008
lock	-12.3015
▁申し	-12.3015
ロワ	-12.3018
▁ココ	-12.3026
▁ジェラ	-12.3028
リータ	-12.3029
▁ソー	-12.3033
クン	-12.3033
▁ひじ	-12.3039
ルーム	-12.3048
▁霞	-12.3049
ンギス	-12.305
メラー	-12.3051
セリン	-12.306
▁クエ	-12.3062
▁136	-12.3069
▁parc	-12.3072
▁チェ	-12.3078
ルーパー	-12.3095
▁ミズ	-12.3097
ver	-12.3102
ッキ	-12.3104
イラ	-12.3107
▁着け	-12.311
リックス	-12.3111
マク	-12.3111
ンゲン	-12.3113
▁ひき	-12.3114
▁sea	-12.3114
クシ	-12.3119
▁作れ	-12.3123
パル	-12.3125
▁亡く	-12.3134
ヘル	-12.3138
uchi	-12.3139
▁オーロ	-12.3142
ig	-12.3144
スタイン	-12.3147
▁大井	-12.3147
ラブ	-12.3158
▁ブラックメタル	-12.3159
▁インディ	-12.3161
va	-12.3162
つこ	-12.3166
▁バウ	-12.3168
▁カノ	-12.317
les	-12.3174
nt	-12.3175
▁mt	-12.3175
▁lc	-12.3177
▁コブ	-12.3181
願い	-12.3181
ッホ	-12.3186
ずら	-12.3186
▁ジーン	-12.3187
("	-12.3188
パブリック	-12.319
▁ブロード	-12.319
▁オラン	-12.3196
▁かく	-12.3196
tars	-12.3201
▁ci	-12.3203
▁レイテ	-12.3205
▁鞍	-12.3206
綬	-12.3206
▁喰	-12.3206
▁entertain	-12.3207
▁トンデモネ	-12.3207
▁棘	-12.3207
インディペンデント	-12.3207
ボニファシオ	-12.3207
@	-12.3207
▁association	-12.3207
▁アリゾナ	-12.3207
▁アンサンブル	-12.3207
▁エメラルド	-12.3207
▁キュラソー	-12.3207
▁デッカ	-12.3207
▁ユトレヒト	-12.3207
▁亥	-12.3207
▁取扱	-12.3207
▁叱	-12.3207
▁喉	-12.3207
▁堪	-12.3207
▁壺	-12.3207
▁扎	-12.3207
▁楯	-12.3207
▁汚れ	-12.3207
▁渾	-12.3207
▁玲	-12.3207
▁糠	-12.3207
▁跨	-12.3207
▁陶磁	-12.3207
佃	-12.3207
倭	-12.3207
傭	-12.3207
剖	-12.3207
嘘	-12.3207
墟	-12.3207
廟	-12.3207
弄	-12.3207
榮	-12.3207
璧	-12.3207
萼	-12.3207
葵	-12.3207
薔	-12.3207
薪	-12.3207
跗	-12.3207
錨	-12.3207
鞠	-12.3207
▁エフエム	-12.3207
▁ネイチャー	-12.3207
▁アイザック	-12.3207
▁アナログ	-12.3207
▁プルトニー	-12.3207
▁セコム	-12.3207
▁読売新聞	-12.3207
▁ケープメイ	-12.3207
▁ゼッケン	-12.3207
▁パラメータ	-12.3207
▁便宜	-12.3207
▁入れ替わ	-12.3207
▁伊吹	-12.3207
▁遠ざか	-12.3207
▁パトロール	-12.3207
▁追いかけ	-12.3207
▁エレーナ	-12.3207
ラミレス	-12.3207
▁ブリッグ	-12.3207
▁お気に	-12.3207
▁ちょっと	-12.3207
▁ウィレムスタッ	-12.3208
▁引き揚げ	-12.3208
▁アルバート	-12.3208
▁キャッシュ	-12.3208
▁弥栄	-12.3208
▁那覇	-12.3208
▁セシル	-12.3208
▁リケニ	-12.3208
▁ソフトバンク	-12.3208
▁エミリー	-12.3208
▁ドクター	-12.3209
▁格納	-12.3209
▁twin	-12.3209
▁グロスター	-12.3209
▁現われ	-12.321
マヌエル	-12.321
トゲピー	-12.321
▁kw	-12.3211
▁混じ	-12.3211
ーディスト	-12.3211
フェリックス	-12.3212
▁取り除	-12.3212
▁イラン	-12.3212
こうえん	-12.3212
▁littl	-12.3212
▁不眠	-12.3213
▁lava	-12.3214
▁確かめ	-12.3215
マイズ	-12.3217
▁ひょう	-12.3217
▁菜々	-12.3218
▁聖母	-12.3219
▁ミンタ	-12.322
▁脊	-12.322
▁筑紫	-12.322
▁project	-12.322
▁フィンガーレイクス	-12.322
▁service	-12.322
▁{	-12.322
▁トータル	-12.322
▁いまだ	-12.3221
▁ジェシー	-12.3221
▁カスタム	-12.3222
▁シグナル	-12.3222
▁グリーンランド	-12.3223
▁520	-12.3224
ebu	-12.3225
▁スケット	-12.3225
▁final	-12.3225
▁ペコ	-12.3227
▁チャック	-12.3228
▁熊野	-12.3229
バアス	-12.3232
▁宇部	-12.3232
▁平塚	-12.3236
受け	-12.3236
▁フレア	-12.3239
▁スピン	-12.324
▁ポケモンリーグ	-12.324
▁ジェイムズ	-12.3243
▁デビッド	-12.3243
▁デューク	-12.3243
▁イワシ	-12.3244
▁ブロンズ	-12.3244
▁just	-12.3245
▁.」	-12.3245
▁虜	-12.3246
▁ソナ	-12.3251
▁フェアリー	-12.3251
▁ザック	-12.3251
▁矢作	-12.3251
gj	-12.3252
セス	-12.3252
セラ	-12.3252
▁撃ち	-12.3253
tp	-12.3253
ser	-12.3253
▁ラッキー	-12.3254
▁スマイル	-12.3254
▁貸出	-12.3257
▁隔て	-12.3261
▁フレッシュ	-12.3264
▁チャーリー	-12.3264
▁jar	-12.3264
▁ショーン	-12.3265
▁アパラチア	-12.3266
▁こうじ	-12.3266
▁富士見	-12.3266
リーブ	-12.3266
ga	-12.3268
▁カウボーイ	-12.3269
▁協和	-12.3272
▁game	-12.3273
▁転が	-12.3273
ウイ	-12.3273
▁ジェフ	-12.3274
ジーンズ	-12.3278
73	-12.3281
▁レゴ	-12.3281
area	-12.3282
▁かず	-12.3282
▁こい	-12.3283
▁ヤナ	-12.3284
イシン	-12.3285
▁拾い	-12.3287
▁鼓	-12.3289
▁きよ	-12.329
▁iss	-12.3292
ルナン	-12.3297
リーチ	-12.33
▁沖合	-12.3303
ail	-12.3304
▁直営	-12.3306
▁bi	-12.3307
リュエット	-12.3309
▁カワハギ	-12.3313
トバ	-12.3314
っき	-12.3315
▁オース	-12.3316
▁thi	-12.3318
▁古文	-12.332
▁くす	-12.332
▁ペレス	-12.332
▁nc	-12.3322
▁ヌード	-12.3322
トール	-12.3325
チュア	-12.3325
ッソ	-12.3332
▁(""	-12.3333
atc	-12.3335
▁キプ	-12.3336
▁腸	-12.3337
▁ヲ	-12.3337
▁売り出	-12.3343
ney	-12.3344
▁ナス	-12.3344
▁岩田	-12.3351
▁立川	-12.3354
▁und	-12.3354
サラ	-12.3355
▁アミ	-12.3359
リアンテ	-12.3362
▁南海	-12.3364
▁ベースボール	-12.3366
lte	-12.337
▁窪	-12.3372
▁ぶん	-12.338
レント	-12.3383
▁凸	-12.3384
アール	-12.3384
▁一ノ	-12.3397
ンプトン	-12.3399
ナント	-12.34
ポー	-12.3402
ギー	-12.3403
▁hira	-12.3403
テンション	-12.3407
▁債	-12.3408
▁どく	-12.341
▁修め	-12.3412
▁カッコ	-12.3416
▁天下	-12.3419
▁おば	-12.3423
▁かいし	-12.3425
パッチ	-12.3433
▁バーミン	-12.3435
スタ	-12.3451
▁フレ	-12.3451
▁植え	-12.3455
▁ken	-12.3455
▁ロペス	-12.3456
▁公文	-12.3458
jf	-12.346
ロジー	-12.3461
ポープ	-12.3464
▁ニコラ	-12.3465
ウアー	-12.3468
▁trans	-12.347
▁吹き出	-12.3476
ron	-12.348
ーニ	-12.3482
▁平山	-12.3482
ヴィロ	-12.3483
ガラ	-12.3484
ボー	-12.3484
▁大倉	-12.3484
▁ポス	-12.3485
早く	-12.3488
▁川中	-12.349
over	-12.3493
▁matsu	-12.3497
997	-12.3501
▁149	-12.3502
▁minor	-12.3505
カギ	-12.3507
▁足り	-12.3508
▁ハラ	-12.3513
▁キク	-12.3516
▁ルーズ	-12.3517
▁下士	-12.3526
ホルム	-12.353
▁チェンジ	-12.353
▁que	-12.3535
ウィー	-12.3539
▁リーマン	-12.354
▁バレ	-12.3544
まる	-12.3545
▁婦人	-12.3575
ペルー	-12.3579
▁謀	-12.3579
53	-12.3585
▁表れ	-12.359
▁ソーシャル	-12.359
エリ	-12.3593
▁嘱	-12.3604
bit	-12.3608
▁オタ	-12.3614
ウン	-12.3622
agne	-12.3624
蚕	-12.3626
ワルド	-12.3626
▁gar	-12.3628
ホン	-12.3635
濫	-12.3638
学士	-12.3643
▁役立	-12.3643
ベンド	-12.3644
フレンド	-12.3649
カセット	-12.3652
▁hk	-12.3655
ライフ	-12.366
どころ	-12.3662
▁seri	-12.3664
彰	-12.3666
棋	-12.3667
帆	-12.3668
奮	-12.3668
バーナード	-12.367
墨	-12.367
豆	-12.3671
巧	-12.3672
陰	-12.3672
鋼	-12.3672
研究	-12.3674
鶴	-12.3674
捨て	-12.3675
ビジネス	-12.3675
腰	-12.3675
露	-12.3676
網	-12.3676
個	-12.3676
克	-12.3677
玄	-12.3677
免	-12.3677
輝	-12.3677
侯	-12.3677
陥	-12.3677
執	-12.3677
到	-12.3677
姉	-12.3677
恋	-12.3678
▁オリ	-12.3678
デビュー	-12.3678
ソフト	-12.3681
空港	-12.3681
ブラックメタル	-12.3683
シアター	-12.3683
カレ	-12.3684
ターズ	-12.3685
▁melod	-12.3685
▁エスト	-12.3688
tus	-12.3691
ディガ	-12.3699
助け	-12.3699
▁ro	-12.3701
▁むか	-12.3702
▁コリ	-12.3707
備え	-12.3708
ストア	-12.3718
▁vp	-12.3719
リアン	-12.3722
▁126	-12.3729
▁チー	-12.3735
▁shi	-12.3736
▁フェリー	-12.3739
ンテ	-12.3743
ピース	-12.3743
▁insta	-12.3743
▁イヌ	-12.3743
▁ホン	-12.3744
▁洲	-12.375
max	-12.3753
ore	-12.3754
▁お茶	-12.3755
クソン	-12.3762
バトル	-12.3765
ランダー	-12.3773
▁ウィリアムズ	-12.3786
メロ	-12.3789
▁142	-12.3798
▁アルマ	-12.3808
▁non	-12.3808
▁295	-12.3813
キナ	-12.382
▁一意	-12.3821
ーア	-12.3824
▁ナック	-12.3829
▁エキス	-12.3834
そも	-12.3839
▁mod	-12.3841
▁oh	-12.3843
▁ur	-12.3847
▁踏み	-12.3864
▁フェロ	-12.3868
ウェールズ	-12.3871
コイ	-12.3875
▁オーク	-12.3878
▁mam	-12.3886
amp	-12.3889
学芸	-12.389
ステッド	-12.3891
▁迷い	-12.3896
▁コントラ	-12.3897
ゲバ	-12.3898
▁スズ	-12.3898
▁148	-12.391
リキー	-12.3914
▁kk	-12.3917
ドゥー	-12.392
saka	-12.3923
チョ	-12.3924
ネリー	-12.3929
▁ばい	-12.3934
▁タナ	-12.3934
▁あし	-12.3936
witch	-12.3952
サム	-12.3953
▁惜	-12.3956
▁die	-12.3959
▁センチ	-12.3967
▁凛	-12.3968
ネギ	-12.397
なぐ	-12.3974
藝	-12.3974
▁アーマー	-12.3975
▁尖	-12.3976
痺	-12.3976
▁ハノー	-12.3976
±	-12.3976
▁horizon	-12.3976
▁キネマ旬報	-12.3976
▁ズュート	-12.3976
▁テッポウ	-12.3976
▁フィブロネクチン	-12.3976
▁ボルチモア	-12.3976
▁ポキプシー	-12.3976
▁埋ま	-12.3976
▁寒河江	-12.3976
▁幼馴染	-12.3976
▁攘	-12.3976
▁旭川	-12.3976
▁橙	-12.3976
▁牝	-12.3976
▁狄	-12.3976
▁莉	-12.3976
▁薛	-12.3976
▁覗	-12.3976
▁謳	-12.3976
▁阮	-12.3976
▁電磁	-12.3976
▁飢	-12.3976
●	-12.3976
嚇	-12.3976
慧	-12.3976
晦	-12.3976
桶	-12.3976
楓	-12.3976
氾	-12.3976
渠	-12.3976
游	-12.3976
禊	-12.3976
羆	-12.3976
蔽	-12.3976
韶	-12.3976
▁wrestl	-12.3976
▁ふさわし	-12.3976
▁モホーク	-12.3976
▁嵯峨	-12.3976
▁カチドキ	-12.3976
▁エグゼクティブ	-12.3976
▁science	-12.3976
▁ソールズベリー	-12.3976
▁総領事	-12.3976
▁タンパ	-12.3976
▁キャビネ	-12.3976
▁ヴェッカー	-12.3976
▁桟敷	-12.3976
▁ジェシカ	-12.3976
▁平方キロ	-12.3976
▁致死	-12.3976
▁ナチュラル	-12.3976
▁エレキ	-12.3976
アナスチグマ	-12.3976
▁フライデー	-12.3977
▁働きかけ	-12.3977
サイエンス	-12.3977
▁フラッシュ	-12.3977
▁グアダ	-12.3977
▁production	-12.3977
▁ゴビ	-12.3977
▁soul	-12.3977
▁石灰	-12.3977
▁ボーイング	-12.3977
▁セイラム	-12.3977
きょく	-12.3977
▁ユニーク	-12.3977
▁切り裂	-12.3977
▁エイブラ	-12.3977
▁キハ	-12.3977
▁アルプス	-12.3978
▁スパルタ	-12.3978
▁千秋	-12.3978
高跳	-12.3978
▁クリーン	-12.3978
▁ツイッ	-12.3978
ウハウ	-12.3979
▁tw	-12.3979
▁イボ	-12.3979
▁浴びせ	-12.3979
▁メキシコシティ	-12.398
▁パルコ	-12.398
▁伏見	-12.398
▁ねじ	-12.3981
▁高尾山	-12.3981
▁ウルトラマン	-12.3981
ナギ	-12.3982
and	-12.3984
▁とどめ	-12.3986
▁ジュラ	-12.3986
▁加奈	-12.3986
▁不老	-12.3987
▁召集	-12.3987
ios	-12.3987
▁ダスト	-12.3987
▁八重	-12.3989
▁プラグ	-12.399
▁ブレゲ	-12.399
▁lord	-12.399
▁氣	-12.399
ハマ	-12.399
▁control	-12.399
▁インフィニティ	-12.399
▁テウチ	-12.399
▁ドラッグ	-12.3991
▁ハッピー	-12.3991
▁バイアス	-12.3991
▁ニコライ	-12.3991
▁ライジング	-12.3991
オサウルス	-12.3992
▁ペドロ	-12.3992
ンバラ	-12.3992
▁嬉し	-12.3994
▁枯れ	-12.3995
▁クロワ	-12.3995
キット	-12.3997
ッセー	-12.3998
▁state	-12.3999
▁アペ	-12.3999
ミッチェ	-12.4
グアム	-12.4002
▁浮き	-12.4003
コットン	-12.4003
kiss	-12.4004
▁裕一	-12.4004
two	-12.4005
フェリー	-12.4006
▁複素	-12.4007
71	-12.4009
▁compan	-12.4009
▁烏	-12.401
▁枯	-12.401
▁交え	-12.401
▁ロマンス	-12.4013
ous	-12.4014
ミエ	-12.4014
▁汎	-12.4015
▁餓	-12.4015
▁痕	-12.4015
▁鱒	-12.4015
▁piece	-12.4015
▁パイオニア	-12.4015
▁サリバン	-12.4015
▁ガブリエル	-12.4015
▁メモリー	-12.4015
▁スクールキル	-12.4016
▁混ぜ	-12.4016
ベンツ	-12.4016
▁カヴァー	-12.4017
▁アンデル	-12.4018
▁アルカ	-12.402
▁ヴィットリ	-12.4022
▁パラダイ	-12.4022
▁まえ	-12.4023
ェスト	-12.4023
▁ネコ	-12.4024
▁慣れ	-12.4025
クロウ	-12.4026
03	-12.4028
▁貸し出	-12.4028
▁ギャル	-12.4029
▁女神	-12.4029
▁メソ	-12.403
▁城西	-12.4032
▁カリン	-12.4032
▁プリント	-12.4032
▁夢見	-12.4036
▁ラマ	-12.4038
▁瀬戸	-12.404
▁豚	-12.404
▁ジェームス	-12.404
▁カプセル	-12.404
▁ピリミ	-12.404
▁cam	-12.4041
▁ゆみ	-12.4041
▁カズ	-12.4044
▁アフター	-12.4045
▁スーペル	-12.4045
▁まわ	-12.4046
▁つね	-12.4047
▁フォーチュン	-12.4048
▁euro	-12.4048
コンデル	-12.4051
▁name	-12.4052
▁ec	-12.4052
▁暴れ	-12.4053
▁フォト	-12.4054
▁アーム	-12.4056
▁スティーヴ	-12.4058
▁ちび	-12.4059
デスク	-12.4059
ling	-12.406
oin	-12.4068
▁ゆうこ	-12.4071
▁歩み	-12.4071
der	-12.4073
▁叫び	-12.4073
▁サテ	-12.4073
▁nel	-12.4079
▁リップ	-12.408
▁ja	-12.4082
▁インテリ	-12.4082
▁アプト	-12.4085
ニコフ	-12.4093
▁レイク	-12.4095
▁イーグル	-12.4096
▁マキシ	-12.4096
▁ギャン	-12.4099
▁絡	-12.4106
▁かき	-12.4108
ナイ	-12.4109
ブレ	-12.4109
ビーチバレー	-12.4111
ズビル	-12.4112
▁一条	-12.4112
▁1200	-12.4114
▁みなと	-12.4116
omas	-12.4116
イト	-12.4116
▁宜	-12.4117
▁溜ま	-12.4117
▁ボイ	-12.4119
▁dis	-12.4127
▁sant	-12.4128
▁マーサ	-12.4134
▁そろ	-12.4136
ビュ	-12.4139
▁うず	-12.4141
ルランド	-12.4145
リエット	-12.4152
▁費や	-12.4152
パンダ	-12.4153
ボーン	-12.4158
muse	-12.4159
ke	-12.4163
サンプル	-12.4166
▁she	-12.4168
▁墾	-12.4168
▁win	-12.417
▁本町	-12.4171
▁beaut	-12.4174
ルタ	-12.4176
ッション	-12.4178
▁稿	-12.418
▁ツー	-12.418
▁2120	-12.4183
ギネ	-12.4183
▁無業	-12.4185
ランプ	-12.4187
さか	-12.4188
ぶれ	-12.419
▁po	-12.4193
▁腎	-12.4194
▁あわ	-12.4201
ナム	-12.4204
▁age	-12.4206
▁san	-12.4207
▁見合	-12.421
まつ	-12.4214
アンカー	-12.4215
マチア	-12.4217
▁オズ	-12.4217
▁750	-12.422
▁bl	-12.422
▁フェス	-12.4222
▁204	-12.4224
▁上半	-12.4225
リス	-12.4226
巳	-12.4232
▁ピク	-12.4233
ターノ	-12.4234
▁欠か	-12.4237
トロス	-12.4237
▁ヒス	-12.4241
cg	-12.4246
ニュー	-12.4256
ェイズ	-12.4258
▁ワクチ	-12.4259
▁アフガ	-12.4264
▁()、	-12.4266
▁大日	-12.4267
クラック	-12.4268
63	-12.4268
重大	-12.4268
▁まん	-12.4269
▁リム	-12.428
dy	-12.4282
▁あす	-12.4283
マキ	-12.4292
▁もも	-12.4292
▁埋め込	-12.4299
zy	-12.43
▁大王	-12.4302
ギンズ	-12.4303
ガウ	-12.4304
pa	-12.4304
ステーク	-12.432
▁ラッカ	-12.4321
▁テュディ	-12.4325
続け	-12.4326
悔	-12.4329
▁ガメ	-12.4331
▁おろ	-12.4333
▁リベラ	-12.4338
pu	-12.4343
▁バト	-12.435
▁gf	-12.4358
▁編み	-12.436
▁jt	-12.4362
▁在校	-12.4369
▁セルマ	-12.437
ノキ	-12.4371
乗り	-12.4371
▁ランズ	-12.4378
マルケ	-12.4381
▁unico	-12.4383
ブロン	-12.4392
ばん	-12.4393
ミッド	-12.4397
髄	-12.4399
▁カリ	-12.4399
▁ハナ	-12.4402
▁lt	-12.4402
▁ガー	-12.4408
▁フェラー	-12.4409
▁ギア	-12.4409
アート	-12.4416
▁ドリ	-12.4417
▁打ち出	-12.442
▁温か	-12.4423
▁こん	-12.4423
▁最高裁	-12.443
ステ	-12.4432
vr	-12.4437
gi	-12.4443
ial	-12.4448
リエン	-12.4449
マニフ	-12.4449
▁cha	-12.4451
づか	-12.4453
tna	-12.4455
トレイル	-12.4458
伽	-12.4461
邱	-12.4461
▁470	-12.4469
ライフル	-12.447
キュラ	-12.447
ザス	-12.4471
▁央	-12.4472
挺	-12.4472
▁暖	-12.4473
▁fo	-12.4476
ex	-12.4478
▁上り	-12.4484
倣	-12.4484
パルミ	-12.4485
哀	-12.4489
▁ウィック	-12.4489
▁コロン	-12.4491
▁saga	-12.4492
ハシ	-12.4494
▁チコ	-12.4494
スルー	-12.4494
訂	-12.4499
コミック	-12.45
サウスウェ	-12.45
▁逃げ出	-12.4501
じみ	-12.4501
踏	-12.4502
新聞	-12.4503
棚	-12.4503
▁パーリ	-12.4505
糖	-12.4505
スターズ	-12.4506
ウォーク	-12.4506
ブロードウェイ	-12.4507
衰	-12.4508
ジョンソン	-12.4508
寒	-12.4508
マガジン	-12.4508
みそ	-12.4508
溝	-12.451
弥	-12.451
創	-12.451
チャンネル	-12.451
▁カネ	-12.451
非	-12.4511
エボラ	-12.4511
怪	-12.4511
ホーン	-12.4514
ルイス	-12.4515
▁高島	-12.4516
▁迎	-12.4516
▁北見	-12.4517
スペース	-12.4519
メーカー	-12.4521
▁103	-12.4524
シェル	-12.4525
ッケ	-12.4528
ーツ	-12.4528
▁ハング	-12.4529
ドク	-12.4529
グリーン	-12.4529
▁アンリ	-12.4534
ディーン	-12.4535
ボート	-12.4538
だち	-12.4539
▁cl	-12.454
パッ	-12.4541
テー	-12.4543
▁131	-12.4548
▁シュ	-12.4554
らけ	-12.4555
トップ	-12.4557
▁中谷	-12.4561
▁アラビ	-12.4561
タリ	-12.4562
▁エンタテインメント	-12.4563
サワン	-12.4565
ts	-12.4569
▁out	-12.4571
▁mille	-12.4571
▁六本	-12.4572
gp	-12.4573
ボス	-12.4574
▁アイソ	-12.4575
ーレ	-12.4595
ue	-12.4596
▁147	-12.4602
レコーダ	-12.4606
▁アームズ	-12.4612
リナ	-12.4617
onfer	-12.462
レックス	-12.4623
ャーズ	-12.4624
▁かさ	-12.4625
ンコ	-12.4631
▁ob	-12.4632
▁廠	-12.4632
ジック	-12.4637
star	-12.4642
▁kn	-12.4648
ジャク	-12.4651
▁溶け	-12.4655
▁ペンシル	-12.4655
▁ポンプ	-12.4658
ノワ	-12.4659
▁ノーマ	-12.4668
uel	-12.4674
▁mh	-12.4678
ris	-12.4683
エージェン	-12.4693
▁ペガ	-12.4696
開発	-12.4696
▁マッ	-12.4699
ブレイン	-12.4702
うえ	-12.4704
▁515	-12.4709
▁シス	-12.4714
▁カスタ	-12.4714
▁生み	-12.4719
▁アンソ	-12.4722
▁カヤ	-12.4723
ンチン	-12.4729
tom	-12.4737
ヴォ	-12.4743
イエ	-12.4747
しん	-12.4748
▁ave	-12.4749
ンチ	-12.475
ガメ	-12.475
▁christ	-12.4757
ci	-12.4768
▁持ち出	-12.4774
▁.』	-12.4775
▁忍び	-12.4779
▁はね	-12.4781
▁プライ	-12.4788
▁アーバ	-12.4793
▁cap	-12.4794
▁ap	-12.4801
)」	-12.4802
▁ホーク	-12.4803
揺	-12.4805
嬢	-12.4806
ロング	-12.4806
▁オペレー	-12.4806
▁プレゼンテー	-12.4807
アセチ	-12.4807
▁ドライ	-12.4808
▁きら	-12.4808
▁貰	-12.4809
▁mont	-12.4809
▁諏	-12.4809
▁dacentrur	-12.4809
▁スヴャト	-12.4809
▁スターダスト	-12.4809
▁ルジニキ	-12.4809
▁メラトニン	-12.481
▁englis	-12.481
▁アイデンティティ	-12.481
▁カムウアン	-12.481
▁コルドバ	-12.481
▁テゴネック	-12.481
▁デオキシシチジン	-12.481
▁トリニダード	-12.481
▁ミネソタ	-12.481
▁云	-12.481
▁宍	-12.481
▁屏	-12.481
▁庇	-12.481
▁彷	-12.481
▁灌	-12.481
▁煮	-12.481
▁脅か	-12.481
▁葺	-12.481
▁譚	-12.481
▁赫	-12.481
▁頸	-12.481
▁驚か	-12.481
侶	-12.481
凪	-12.481
咋	-12.481
巌	-12.481
彿	-12.481
渚	-12.481
渭	-12.481
爬	-12.481
繭	-12.481
蕊	-12.481
錫	-12.481
驤	-12.481
髭	-12.481
麺	-12.481
▁ペナルティ	-12.481
▁film	-12.481
▁サザエ	-12.481
▁閉じ込め	-12.481
mobile	-12.481
ا	-12.481
ネーデルラン	-12.481
▁ヤクルト	-12.481
▁omosaur	-12.481
▁松下電器	-12.481
ソプラノ	-12.481
▁ディエゴ	-12.481
▁アルバータ	-12.481
▁インディアナポリス	-12.481
▁コンタクト	-12.481
▁チェリー	-12.481
▁revolution	-12.481
▁ロベ	-12.481
▁シットコム	-12.481
ポルク	-12.481
▁begin	-12.481
ニカル	-12.481
▁フレッド	-12.481
▁ストライク	-12.481
▁ボローニャ	-12.481
▁木綿	-12.481
▁イースタン	-12.481
▁出来上が	-12.481
▁賑わ	-12.481
▁六甲	-12.481
チャイニーズ	-12.481
▁キャバレー	-12.481
▁混ざ	-12.481
▁wcw	-12.4811
▁ジョゼフ	-12.4811
▁皮肉	-12.4811
▁ふれあ	-12.4811
ヒッツ	-12.4811
▁meet	-12.4811
▁わざと	-12.4811
▁あゆ	-12.4811
▁使い分け	-12.4811
▁every	-12.4811
▁スキップ	-12.4811
▁グレプ	-12.4811
▁スイカ	-12.4811
▁すすめ	-12.4812
▁文藝	-12.4812
ニュアル	-12.4812
▁衰え	-12.4812
バダ	-12.4812
▁ディスカ	-12.4812
▁イヴァン	-12.4812
edition	-12.4813
▁過半数	-12.4813
▁ジャンヌ	-12.4813
▁宇佐	-12.4813
ダコタ	-12.4813
ボネ	-12.4813
▁フランツ	-12.4814
acl	-12.4814
▁スープ	-12.4814
▁シャルル	-12.4814
▁千絵	-12.4815
キュ	-12.4815
▁ターボ	-12.4815
▁シックス	-12.4816
▁ブラックホール	-12.4816
▁メリ	-12.4816
▁lee	-12.4816
▁ホームタウン	-12.4817
▁磨き	-12.4817
▁jack	-12.4818
▁仕立て	-12.4819
フェルス	-12.4823
▁亡き	-12.4825
▁什	-12.4825
▁梯	-12.4825
▁child	-12.4825
▁カリビアン	-12.4825
▁サンティアゴ	-12.4825
▁ヴィクター	-12.4825
▁ヒロシ	-12.4825
▁アルミ	-12.4826
▁ハワード	-12.4826
▁シンクロ	-12.4826
▁ステファン	-12.4826
▁セイバー	-12.4826
▁税務	-12.4827
▁応接	-12.4827
▁ベストセラー	-12.4829
ラミン	-12.4829
ホルモン	-12.4829
セレクション	-12.483
マーフィー	-12.483
▁lanti	-12.483
▁シャム	-12.483
▁かなえ	-12.4831
▁あこ	-12.4832
▁hot	-12.4832
▁xy	-12.4832
▁中塩	-12.4833
▁力強	-12.4835
フェース	-12.4836
▁納め	-12.4836
▁おうじ	-12.4838
▁アイド	-12.4838
タント	-12.4839
▁貸切	-12.4839
▁目黒	-12.484
▁いばら	-12.4841
▁ちぎ	-12.4842
▁家老	-12.4843
▁エンターテイ	-12.4844
▁小浜	-12.4844
dita	-12.4845
▁浅野	-12.4846
▁アザ	-12.4846
▁曲がり	-12.4847
▁プロトコ	-12.4847
▁ハッチ	-12.4849
ヴィー	-12.4849
▁マシュー	-12.4849
▁長田	-12.485
▁pan	-12.4851
▁侮	-12.4851
▁鶏	-12.4852
▁アスリート	-12.4852
▁ソリューション	-12.4852
▁ジュエリー	-12.4852
▁ウィリス	-12.4852
▁押さえ	-12.4852
▁づら	-12.4853
▁聴き	-12.4853
▁こぼれ	-12.4853
▁hip	-12.4853
air	-12.4853
▁健一	-12.4855
▁gate	-12.4855
だい	-12.4856
▁げき	-12.4858
▁味わ	-12.4859
ディアス	-12.486
▁リンデン	-12.4861
▁古河	-12.4861
ust	-12.4862
▁飛島	-12.4862
▁前売	-12.4862
クラウゼ	-12.4863
▁公使	-12.4865
▁かねて	-12.4865
▁もん	-12.4866
▁エレ	-12.4866
▁農産	-12.4868
▁ピル	-12.487
▁創価	-12.4872
ビリティ	-12.4874
▁ゆず	-12.4878
▁恥	-12.4878
タリア	-12.4878
▁濁	-12.4879
▁畳	-12.4879
▁オーウェン	-12.4879
▁ギャラクシー	-12.4879
▁麦	-12.4879
▁デュランテ	-12.4879
ローガン	-12.4879
▁エンテイ	-12.4879
▁ボトム	-12.488
▁ゴミ	-12.488
▁触れ合	-12.4882
▁商務	-12.4883
歌劇	-12.4886
▁歩き	-12.4886
▁美女	-12.4886
チャー	-12.4886
▁!〜』	-12.4887
ッセイ	-12.4888
▁バーカー	-12.4888
▁ナナ	-12.489
▁sec	-12.4892
ina	-12.4893
▁深谷	-12.4894
ータン	-12.4895
▁マキノ	-12.4895
▁気味	-12.4895
ぐま	-12.4897
▁shine	-12.4897
メイキング	-12.4898
ラック	-12.4899
▁ハーモニ	-12.4899
▁欲	-12.49
nimo	-12.49
▁mika	-12.4901
▁アウ	-12.4902
タラ	-12.4904
じん	-12.4905
▁蜜	-12.4907
▁friend	-12.4907
▁famil	-12.4907
▁ダッシュ	-12.4908
▁ao	-12.4909
▁アルト	-12.4911
▁徳間	-12.4911
▁ルノー	-12.4911
▁mina	-12.4913
▁ボッ	-12.4914
▁ゴア	-12.4922
▁こっ	-12.4922
een	-12.4922
▁思い込	-12.4923
▁ill	-12.4925
ニュ	-12.4927
▁ナッシュ	-12.4927
クリーム	-12.4931
キストラ	-12.4933
▁充て	-12.4934
▁南京	-12.4934
▁峯	-12.4934
▁コモンウェルス	-12.4935
▁白木	-12.4936
▁アタック	-12.4936
どき	-12.4937
▁リバ	-12.4937
マエ	-12.4937
エンター	-12.4943
マリア	-12.4944
」(	-12.4944
▁立ち会	-12.4945
▁ナビ	-12.4946
▁酔	-12.4946
▁カニ	-12.4949
▁battle	-12.4953
▁ぶつ	-12.4956
▁サンズ	-12.4956
▁tom	-12.4957
ru	-12.4957
more	-12.4957
á	-12.496
iel	-12.496
▁エロル	-12.4961
▁jin	-12.4961
▁京阪	-12.4963
ius	-12.4964
▁意外	-12.4964
▁サザン	-12.4965
aki	-12.4965
▁bey	-12.4965
グラフィ	-12.4969
ボンド	-12.4969
▁割れ	-12.4971
▁mp	-12.4974
▁センス	-12.498
換え	-12.498
ッズ	-12.4981
cher	-12.4982
▁ツル	-12.4984
▁ファシ	-12.4988
▁舷	-12.4991
▁スカラ	-12.4992
バークレー	-12.4994
セラー	-12.4996
▁hw	-12.4997
ディーノ	-12.5001
ds	-12.5005
▁コネクタ	-12.5006
▁由美	-12.5013
▁カンナ	-12.5013
▁いや	-12.5017
▁デフォル	-12.5017
▁コロムビア	-12.5019
▁ちょ	-12.5024
▁オモ	-12.5026
京大	-12.5026
▁フィルタ	-12.503
▁小谷	-12.5032
▁追いや	-12.5032
ハブ	-12.5032
トリア	-12.504
map	-12.5042
ステル	-12.5045
▁light	-12.5046
mp	-12.5048
▁ゲー	-12.5055
▁mu	-12.5058
▁居合	-12.5061
▁パレス	-12.5064
▁fw	-12.5065
▁アキ	-12.5066
▁gaba	-12.5067
▁垣	-12.5069
▁負わ	-12.5076
▁virus	-12.5076
▁if	-12.5076
▁der	-12.5085
ティス	-12.5088
▁こお	-12.5092
▁ザー	-12.5097
critic	-12.5101
鉄工	-12.5103
▁挫	-12.5105
▁盆	-12.5105
ルブルク	-12.5108
▁223	-12.5117
▁ジョイ	-12.5118
▁シュレー	-12.5127
▁ありが	-12.5128
▁eye	-12.513
ve	-12.5133
▁田原	-12.5135
▁lil	-12.5138
▁ウパー	-12.5139
▁別所	-12.5141
▁勝ち取	-12.5145
▁まとま	-12.5148
▁ラフ	-12.5154
マルティ	-12.5155
▁ないし	-12.5163
▁work	-12.5165
▁720	-12.5165
タイン	-12.5167
▁預か	-12.5173
抜き	-12.5174
▁カリー	-12.5185
▁申し込	-12.5186
▁どころ	-12.5188
モス	-12.5189
ルーズ	-12.5193
▁尿	-12.5193
メタルバンド	-12.5198
day	-12.5198
▁far	-12.52
rie	-12.5201
キングス	-12.5203
リンガ	-12.5205
リパ	-12.5206
▁モモ	-12.5207
▁パズ	-12.5211
▁優し	-12.5214
▁エール	-12.5216
ミュラ	-12.5218
ァー	-12.5224
プロデュー	-12.5225
▁yu	-12.5233
▁ミオシティ	-12.5235
▁カルデ	-12.5237
▁style	-12.524
▁カレ	-12.5242
ブレム	-12.5244
コー	-12.5256
ビオ	-12.5259
ブレット	-12.5262
▁land	-12.5265
ンセル	-12.5266
スマン	-12.527
▁ツェル	-12.527
▁レパー	-12.5274
ソル	-12.5277
▁カバ	-12.5282
バエ	-12.5282
▁諭	-12.5282
トス	-12.5284
パート	-12.5288
▁アドレ	-12.5289
ニーズ	-12.5291
浴	-12.5299
▁ok	-12.5305
▁su	-12.5306
▁mac	-12.5306
ノーブル	-12.5307
▁やまし	-12.5313
テム	-12.5315
広	-12.5315
▁ファラ	-12.5319
▁chris	-12.5321
グノー	-12.533
クラ	-12.5331
んぼ	-12.5336
キラ	-12.534
949	-12.5344
ニト	-12.5345
ィー	-12.5348
ミゼ	-12.5348
▁利き	-12.535
▁シロ	-12.5351
▁エラ	-12.5357
▁260	-12.5365
っぱら	-12.5368
かつ	-12.5371
▁股	-12.5374
▁nk	-12.5375
▁ムサ	-12.5376
▁哉	-12.5379
▁universit	-12.5379
弊	-12.5383
ichi	-12.5389
▁持て	-12.539
ウィック	-12.5391
ミック	-12.5392
タイガー	-12.5399
ジオン	-12.54
碁	-12.54
▁129	-12.5402
挫	-12.5404
盆	-12.5404
クリフ	-12.5405
▁うさ	-12.5405
モール	-12.5405
百	-12.5406
ロペス	-12.5407
左衛門	-12.5409
晴	-12.541
垂	-12.541
凡	-12.541
腫	-12.5411
〜	-12.5411
rm	-12.5413
錠	-12.5414
逝	-12.5414
ヴォーカル	-12.5414
スティーブン	-12.5414
吐	-12.5415
辛	-12.5416
ホスファ	-12.5416
スタンド	-12.5416
泳ぎ	-12.5416
柱	-12.5416
敢	-12.5417
邪	-12.5417
▁ヒコ	-12.5417
ヌクレオシド	-12.5417
嗣	-12.5417
ウォーター	-12.5417
戯	-12.5418
冷	-12.5418
キャスター	-12.5418
ミュージシャン	-12.5418
フィルム	-12.5418
偽	-12.5419
訪	-12.5419
晩	-12.5419
乙	-12.5419
ハドソン	-12.5419
ベター	-12.5419
未	-12.5419
貞	-12.5419
プロジェクト	-12.5419
夕	-12.5419
寝	-12.5419
嘉	-12.5419
叙	-12.5419
漁	-12.542
キャスト	-12.542
舞台	-12.542
▁マニラ	-12.5422
インディアン	-12.5424
▁やけ	-12.5425
▁tri	-12.5426
ula	-12.5426
エック	-12.5427
モンド	-12.5428
▁パオ	-12.5428
討ち	-12.5431
ウェイト	-12.5431
抜け	-12.5432
ニュース	-12.5434
音楽	-12.5434
▁off	-12.5434
ez	-12.5435
自由	-12.5437
▁アッ	-12.5437
フレ	-12.5439
ft	-12.544
▁旅立	-12.5445
▁アフレ	-12.5447
▁hi	-12.5448
▁fro	-12.5452
▁530	-12.5457
▁タバ	-12.5461
まとめ	-12.5464
ブラッド	-12.5464
アプリ	-12.5466
電気	-12.547
ce	-12.5476
▁平ら	-12.5477
ola	-12.5479
▁マウ	-12.5487
ツエ	-12.5491
カルト	-12.5493
トラクター	-12.5494
マイカ	-12.5494
▁ブロ	-12.5502
▁ヨル	-12.5509
▁プレーン	-12.5517
▁ブラン	-12.5517
▁オカ	-12.5517
▁ササ	-12.5519
ire	-12.5527
▁モラ	-12.553
ベース	-12.5531
▁ビーク	-12.5536
▁will	-12.5541
▁ストライキ	-12.5543
▁代々	-12.5545
ばし	-12.5546
▁せき	-12.555
▁チュ	-12.5552
バレ	-12.5552
ルア	-12.5562
ロイ	-12.5564
▁ランディ	-12.5565
ーシス	-12.5566
ッグ	-12.5568
クリ	-12.5569
コリン	-12.5576
33	-12.558
▁バークレ	-12.5583
omos	-12.5588
イジー	-12.559
▁インフレ	-12.5596
▁1100	-12.5601
ルム	-12.5603
cc	-12.5603
me	-12.5604
ンプル	-12.5608
▁deep	-12.5609
la	-12.5613
オル	-12.5617
ator	-12.5618
▁おん	-12.5621
▁喚	-12.5626
ジョイ	-12.5628
▁つる	-12.5634
キャット	-12.5639
▁づ	-12.564
ピオ	-12.565
▁bit	-12.5655
レーダー	-12.5659
ジョー	-12.5661
▁アト	-12.5668
ズス	-12.5668
ギマ	-12.567
ブナ	-12.5671
▁128	-12.5673
▁sur	-12.5675
レム	-12.568
▁ジョバ	-12.5681
まじ	-12.5685
ワー	-12.5686
▁za	-12.5686
sa	-12.5686
ぼっ	-12.5687
▁傷つ	-12.5696
▁マネージ	-12.5697
ンク	-12.5698
▁ハウ	-12.5698
ka	-12.5701
エム	-12.5704
ヘム	-12.5705
ワナ	-12.5709
▁1700	-12.5709
▁ダウ	-12.571
▁|	-12.5711
▁愚	-12.5711
▁めざ	-12.5713
▁シュヴ	-12.5714
▁あく	-12.5714
アラシ	-12.5714
▁ケダ	-12.5716
▁バチ	-12.5716
ザーデ	-12.5717
▁meta	-12.5718
ain	-12.5718
▁"|	-12.5718
▁繊	-12.5718
捉	-12.5719
▁コロラド	-12.5719
▁ナサニエル	-12.5719
アスレチック	-12.5719
≡	-12.5719
▁academ	-12.5719
▁horloge	-12.5719
▁♪	-12.5719
▁アームズウェポン	-12.5719
▁カスティーリャ	-12.5719
▁ドミティリア	-12.5719
▁フィルハーモニ	-12.5719
▁ボリシェヴィ	-12.5719
▁メンフィス	-12.5719
▁リカルド	-12.5719
▁リベンジ	-12.5719
▁レスポンス	-12.5719
▁卸	-12.5719
▁取りやめ	-12.5719
▁四万十	-12.5719
▁扮	-12.5719
▁扯	-12.5719
▁抄	-12.5719
▁欽	-12.5719
▁瀕	-12.5719
▁燁	-12.5719
▁盧	-12.5719
▁硫黄	-12.5719
▁絹	-12.5719
▁罵	-12.5719
▁翠	-12.5719
▁脩	-12.5719
▁釘	-12.5719
▁銚子	-12.5719
▁鷺	-12.5719
ポピュラー	-12.5719
址	-12.5719
姦	-12.5719
孚	-12.5719
廓	-12.5719
栓	-12.5719
檎	-12.5719
漑	-12.5719
疆	-12.5719
痢	-12.5719
綻	-12.5719
蔦	-12.5719
蟇	-12.5719
迄	-12.5719
▁michael	-12.5719
▁corporat	-12.5719
▁ミツハニー	-12.5719
▁桐朋	-12.5719
みずほ	-12.5719
プロフェッショナル	-12.5719
▁ナショナリ	-12.5719
▁earth	-12.5719
▁きわめ	-12.5719
▁ノルディック	-12.5719
▁バンコク	-12.5719
▁ebola	-12.5719
▁ハロルド	-12.5719
▁羽ばた	-12.5719
▁ノートルダム	-12.5719
▁ニホン	-12.5719
▁付き添	-12.5719
▁度重な	-12.5719
▁立ち寄	-12.5719
▁タオル	-12.5719
▁仕留め	-12.5719
▁若狭	-12.5719
▁フロイド	-12.5719
▁スコパ	-12.5719
▁レンタ	-12.5719
▁セーラー	-12.5719
▁テトラ	-12.5719
ベンジャミン	-12.5719
ニヤード	-12.5719
▁吹き飛ば	-12.5719
▁robos	-12.5719
▁役に立	-12.572
▁サイモン	-12.572
▁乗り入れ	-12.572
▁飽き	-12.572
▁under	-12.572
▁ソーラー	-12.572
サイ	-12.572
▁idol	-12.572
▁hero	-12.572
▁未完	-12.572
ゾンビ	-12.572
▁プリンストン	-12.572
▁雷電	-12.5721
▁eu	-12.5721
コーディネーター	-12.5721
▁パステル	-12.5721
▁パーシー	-12.5721
アーカイブ	-12.5721
▁見下ろ	-12.5721
▁コンスタント	-12.5721
ウイア	-12.5721
▁稲垣	-12.5721
▁jean	-12.5722
▁ゴルゴ	-12.5722
▁サントリー	-12.5722
▁エレベータ	-12.5722
▁フォーリング	-12.5722
グラハム	-12.5723
▁チャーム	-12.5723
▁スペースシャ	-12.5723
▁溺れ	-12.5723
▁源氏	-12.5723
▁ポケ	-12.5723
▁gold	-12.5724
▁card	-12.5724
▁アレックス	-12.5724
▁架け	-12.5725
▁ナイルズ	-12.5725
サリナス	-12.5725
▁桐生	-12.5726
カルチャー	-12.5726
▁double	-12.5726
▁可愛	-12.5726
▁健二	-12.5727
▁パネ	-12.5727
▁とらわれ	-12.5727
▁rw	-12.5727
▁絞め	-12.5727
▁!」(	-12.5727
ヴェスト	-12.5728
テイスト	-12.573
▁百科	-12.5731
▁water	-12.5732
▁アミー	-12.5732
▁専修	-12.5733
▁コイン	-12.5734
▁七尾	-12.5734
▁エドモン	-12.5735
▁憤	-12.5736
▁瑠	-12.5736
▁綺	-12.5736
▁襟	-12.5736
▁詮	-12.5736
▁騙	-12.5736
▁ベスレヘム	-12.5736
▁デイビッド	-12.5736
▁ローザンヌ	-12.5736
▁イスメイ	-12.5736
▁スーザン	-12.5736
▁ひよ	-12.5736
▁イジャスラ	-12.5736
▁太鼓	-12.5736
▁")、	-12.5738
▁折れ	-12.5738
▁貸し	-12.5739
シアン	-12.574
▁ジョリー	-12.574
ファスト	-12.574
ムセ	-12.574
▁アルツ	-12.5741
▁奈々	-12.5742
▁常陸	-12.5743
▁ディック	-12.5743
▁日蓮	-12.5743
▁西武	-12.5743
china	-12.5743
▁key	-12.5744
▁引き渡	-12.5745
mm	-12.5746
タット	-12.5746
▁ピエ	-12.5746
ガト	-12.5746
▁松江	-12.5747
ジナ	-12.5747
▁stars	-12.5748
▁怖が	-12.5749
▁ハロー	-12.5749
▁ローランド	-12.575
▁見守	-12.575
アポン	-12.5751
▁リク	-12.5752
▁江井	-12.5752
▁キープ	-12.5753
ッペ	-12.5754
▁血統	-12.5756
▁暖か	-12.5757
レーザ	-12.5757
▁タグ	-12.576
ブリッド	-12.576
▁企て	-12.5761
▁みせ	-12.5762
▁矢田	-12.5762
▁train	-12.5764
▁福士	-12.5764
▁champ	-12.5765
▁塑	-12.5765
▁彭	-12.5765
▁桓	-12.5765
▁吟	-12.5765
▁愉	-12.5765
▁ミハイロ	-12.5765
▁アレクサンダー	-12.5765
▁リミテッド	-12.5765
▁スタッド	-12.5765
▁メモリアル	-12.5765
▁シーケン	-12.5766
▁チェロ	-12.5766
▁ルーカス	-12.5766
ナリ	-12.5766
▁カーティス	-12.5767
▁予科	-12.5767
▁week	-12.5767
azz	-12.5768
▁マチ	-12.5768
ーシャ	-12.577
▁宝物	-12.577
▁エアロ	-12.577
▁パイン	-12.577
▁南朝	-12.5774
nato	-12.5775
▁ざき	-12.5776
▁horn	-12.5776
▁日立	-12.5776
▁neb	-12.5778
▁シマ	-12.5779
▁har	-12.5779
▁候	-12.5782
▁トミー	-12.5785
▁モデ	-12.5785
▁チューリッ	-12.5787
▁ラベル	-12.5787
ライク	-12.5788
組合	-12.5789
トレ	-12.5789
カイロ	-12.5791
都立	-12.5791
ホルツ	-12.5792
▁成城	-12.5795
▁camp	-12.5795
▁教科	-12.5796
▁クレイジー	-12.5796
コスモス	-12.5798
▁><	-12.5798
▁ニート	-12.5798
▁ギザ	-12.5799
▁em	-12.58
トラスト	-12.5803
▁ども	-12.5806
レディス	-12.5808
▁刷	-12.5809
▁西鉄	-12.581
▁color	-12.5814
▁よろ	-12.5817
ショウ	-12.5818
▁アルディ	-12.582
トフ	-12.5821
▁燃や	-12.5822
▁ブカ	-12.5822
▁ot	-12.5825
▁舘	-12.5825
▁フレーム	-12.5826
▁毎日新聞	-12.5826
▁信一	-12.5826
▁さぐ	-12.583
▁こめ	-12.5831
▁立方	-12.5831
▁多摩	-12.5832
▁テリー	-12.5834
ショ	-12.5835
▁zoo	-12.5837
▁サント	-12.5837
あい	-12.5838
エフェクト	-12.5839
▁けれど	-12.5841
▁マイルズ	-12.5841
▁サイコ	-12.5843
▁db	-12.5843
▁ビン	-12.5845
▁せつ	-12.5846
マス	-12.5849
▁不死	-12.585
▁ふり	-12.5851
▁case	-12.5852
dsi	-12.5855
▁腔	-12.5856
▁卑	-12.5856
▁鉢	-12.5856
▁ストリーミング	-12.5856
▁サウード	-12.5857
▁多賀	-12.5859
イバル	-12.5869
▁ごみ	-12.5869
▁一節	-12.587
▁チェン	-12.587
▁織り	-12.5873
ゲール	-12.5877
▁ドリーム	-12.5877
si	-12.5878
▁ふし	-12.5879
▁アバ	-12.588
▁."	-12.5882
ンフットボール	-12.5882
▁single	-12.5884
▁)』	-12.5888
▁fla	-12.59
▁パチ	-12.5905
▁power	-12.5905
▁ジェン	-12.5907
▁歩道	-12.5911
lin	-12.5912
▁心地	-12.5913
▁わざ	-12.5918
▁靭	-12.5918
▁pre	-12.5924
谷川	-12.5924
▁サボ	-12.5926
▁uni	-12.5928
▁レアル	-12.5929
▁チェス	-12.5931
たらし	-12.5942
ポワ	-12.5943
▁多年	-12.5949
437	-12.5949
▁〜)	-12.595
▁傷つけ	-12.5954
▁jas	-12.5956
▁ドック	-12.5956
チャイ	-12.596
▁バルト	-12.5963
hq	-12.597
テック	-12.5973
▁照ら	-12.5973
▁桐	-12.5974
ide	-12.5974
▁かま	-12.5985
ラード	-12.5987
▁リフ	-12.5992
mura	-12.5992
ツジ	-12.5996
▁似合	-12.5996
▁サタニ	-12.5997
▁烈	-12.5998
▁310	-12.5999
▁ボア	-12.6001
▁スプリン	-12.6001
▁ラモン	-12.6002
コア	-12.6003
のり	-12.6008
アイル	-12.6014
▁フレーベル	-12.6014
ong	-12.6021
▁マサ	-12.6024
▁強め	-12.6024
ウマ	-12.6029
▁チョ	-12.6029
▁ドゥア	-12.6031
can	-12.6032
プラタ	-12.6038
▁ヒノ	-12.6046
▁スル	-12.6047
▁東野	-12.6049
uma	-12.605
▁一対	-12.6052
▁リュ	-12.6055
ウェイズ	-12.6056
▁ドリー	-12.6057
▁ガロ	-12.6057
▁アラビノ	-12.6066
バースト	-12.6069
▁ざん	-12.6071
▁押し出	-12.6076
▁370	-12.6079
ラプトル	-12.608
▁ミミ	-12.6084
▁日向	-12.6085
▁psv	-12.6089
ツォ	-12.6091
まき	-12.6099
▁950	-12.6102
id	-12.6104
cis	-12.6106
▁解き	-12.6109
▁ディーン	-12.6112
▁東中	-12.6112
▁lo	-12.6116
▁over	-12.6122
▁bot	-12.6124
ティコ	-12.613
セイ	-12.6134
デー	-12.6136
プラザ	-12.6136
▁丸の	-12.6141
ケイシー	-12.6152
▁tomo	-12.6159
チニル	-12.6163
tar	-12.6167
▁ster	-12.6167
▁結びつけ	-12.6168
▁mar	-12.6169
▁びわ	-12.6173
ティモ	-12.6176
▁lock	-12.618
▁base	-12.6181
リオス	-12.6191
焉	-12.6192
▁八千	-12.6196
▁西中	-12.6199
ェ	-12.6203
ッシ	-12.6204
▁book	-12.6209
レッ	-12.621
ivate	-12.6212
od	-12.6217
電機	-12.6221
整形	-12.6223
ナイン	-12.6228
エイ	-12.6231
▁ベンチ	-12.6234
セロ	-12.6234
▁hito	-12.6241
リパー	-12.6242
ホル	-12.6243
▁ウソ	-12.6247
水産	-12.6253
▁オト	-12.6257
▁際立	-12.6266
ニアン	-12.6269
▁近づけ	-12.6269
プリング	-12.6269
▁どうして	-12.627
▁ベス	-12.6272
クリュー	-12.6275
▁フード	-12.6279
▁スティル	-12.6292
▁ナイ	-12.6296
950	-12.6297
リープ	-12.6299
ーベル	-12.6301
せい	-12.6302
ミュー	-12.6306
カーイ	-12.6309
▁144	-12.6309
vici	-12.6309
990	-12.631
▁ふけ	-12.631
▁210	-12.6311
ja	-12.6318
▁あけ	-12.6319
シッド	-12.6322
カラー	-12.6322
▁ヒナ	-12.6323
▁エラー	-12.6324
ハーディ	-12.6327
ナン	-12.6331
エラ	-12.6336
ren	-12.6338
ンゲ	-12.634
▁グレ	-12.6354
ory	-12.6355
畠	-12.6357
▁あが	-12.6359
▁960	-12.636
ンコウ	-12.6365
▁今年	-12.6374
▁del	-12.6376
▁650	-12.6383
ピク	-12.6386
▁束	-12.6388
第	-12.6388
▁在り	-12.6393
忘	-12.6394
idi	-12.6394
癒	-12.6398
磐	-12.6398
舵	-12.6398
▁柿	-12.6399
▁ブイ	-12.6402
リュウ	-12.6403
フレーベル	-12.6404
芸術	-12.6405
商科	-12.6406
エミー	-12.6409
尽	-12.641
穏	-12.6411
添	-12.6411
咲	-12.6412
裸	-12.6414
賜	-12.6414
臭	-12.6414
沙	-12.6415
phosphat	-12.6415
ジョージ	-12.6416
コマンド	-12.6416
蘭	-12.6416
柴	-12.6416
逸	-12.6416
騒	-12.6417
八幡	-12.6417
チャレンジ	-12.6417
サーキット	-12.6417
ブラウン	-12.6417
▁ud	-12.6417
又	-12.6418
ジャンプ	-12.6418
ロイヤル	-12.6418
ディスク	-12.6418
シネマ	-12.6418
懸	-12.6419
千	-12.6419
グランプリ	-12.6419
促	-12.6419
遺	-12.6419
弓	-12.6419
赤	-12.6419
私	-12.6419
サッカー	-12.6419
誤	-12.6419
シーズン	-12.642
六	-12.642
コーナー	-12.6421
あわせ	-12.6422
エンド	-12.6422
クター	-12.6423
植え	-12.6425
農業	-12.6425
cio	-12.6426
ハート	-12.6426
アレン	-12.6429
テープ	-12.6429
フォス	-12.6431
press	-12.6432
▁なつ	-12.6434
▁あつ	-12.6434
ルヘ	-12.6438
トイ	-12.6438
ファンク	-12.6438
lip	-12.6439
▁脈	-12.6441
lie	-12.6441
▁ジュリア	-12.6445
virus	-12.6445
round	-12.6447
ジュン	-12.645
▁アリア	-12.6452
ザグ	-12.6455
rez	-12.6459
コメディ	-12.6467
ミット	-12.6476
ジョーン	-12.6477
アニ	-12.648
オラ	-12.6489
▁dd	-12.6495
▁コタ	-12.6498
▁まば	-12.6507
▁トイ	-12.6509
ベルグ	-12.651
▁サスペン	-12.6516
レーター	-12.6518
やり	-12.6519
ポト	-12.6523
▁最上	-12.6527
ンヌ	-12.6528
タード	-12.6533
▁意気	-12.6537
工科	-12.654
aft	-12.6556
ンタナ	-12.6561
アンダー	-12.6561
igs	-12.6571
みき	-12.6577
mine	-12.6581
ズタウン	-12.6583
▁ウツ	-12.6598
▁pl	-12.6601
ラハ	-12.6603
▁スムー	-12.6604
ョウ	-12.6609
ッサ	-12.661
クティブ	-12.661
ベア	-12.6616
ti	-12.6617
共産	-12.6621
差し	-12.6635
iki	-12.6644
▁デオキシリボヌクレオチ	-12.6646
リヴァー	-12.6648
▁dp	-12.6649
▁従兄	-12.6651
ブリテ	-12.6651
▁ロメ	-12.6651
▁307	-12.6654
がけ	-12.6655
▁hs	-12.6655
▁yoko	-12.6658
モノ	-12.6662
▁アド	-12.6673
transf	-12.6674
kkai	-12.6678
▁デミ	-12.6679
とめ	-12.668
▁そら	-12.6683
けん	-12.6694
▁吐き	-12.6695
ワイフ	-12.6698
ポロ	-12.6702
マニア	-12.6702
▁コネク	-12.6704
alis	-12.6709
▁heart	-12.6709
▁絡み	-12.6712
▁滋	-12.6715
ced	-12.6715
vil	-12.6716
▁mark	-12.6719
ˈ	-12.6719
δ	-12.6719
▁トレッセッテ	-12.6719
▁メキシカン	-12.6719
▁メルボルン	-12.6719
▁ラーメーシュ	-12.6719
▁冥	-12.6719
▁剃	-12.6719
▁厩	-12.6719
▁孟	-12.6719
▁恐ろし	-12.6719
▁恵比寿	-12.6719
▁扁	-12.6719
▁拉	-12.6719
▁推し進め	-12.6719
▁掩	-12.6719
▁撒	-12.6719
▁曜	-12.6719
▁淮	-12.6719
▁渥	-12.6719
▁湛	-12.6719
▁滸	-12.6719
▁疲れ	-12.6719
▁禎	-12.6719
▁箭	-12.6719
▁聚	-12.6719
▁肘	-12.6719
▁荊	-12.6719
▁蒔	-12.6719
▁螺	-12.6719
▁躊躇	-12.6719
▁隼	-12.6719
ぢ	-12.6719
丼	-12.6719
佛	-12.6719
喝	-12.6719
娯	-12.6719
拗	-12.6719
撰	-12.6719
斧	-12.6719
槨	-12.6719
苑	-12.6719
藻	-12.6719
邊	-12.6719
醤	-12.6719
陛	-12.6719
駙	-12.6719
黛	-12.6719
▁foot	-12.6719
▁york	-12.6719
▁フランソワ	-12.6719
▁ヴャチェスラフ	-12.6719
ディレクトリ	-12.6719
▁movie	-12.6719
▁あきらめ	-12.6719
▁ナビゲータ	-12.6719
▁ニンテンドウ	-12.6719
▁リウドルフ	-12.6719
▁めざまし	-12.6719
▁ノエミ	-12.6719
▁締めくく	-12.6719
▁cross	-12.6719
▁問い合わせ	-12.6719
▁オースティン	-12.6719
▁途絶え	-12.6719
▁セクシー	-12.6719
▁枢密	-12.6719
▁クイーンズベリー	-12.6719
▁ネイティブ	-12.6719
▁申し入れ	-12.6719
▁ケティオサウ	-12.6719
▁ヤマハ	-12.6719
ムニシ	-12.6719
▁致命	-12.6719
▁セオドア	-12.6719
▁feat	-12.6719
▁トレンド	-12.6719
▁スーダン	-12.6719
▁曽我	-12.6719
▁キャノン	-12.6719
▁打ち明け	-12.6719
▁ランドルフ	-12.6719
▁妨げ	-12.6719
▁ツーリング	-12.672
▁ネヴェ	-12.672
▁何故	-12.672
▁襲いかか	-12.672
▁ワーキング	-12.672
▁スモール	-12.672
▁引き返	-12.672
▁可愛らし	-12.672
▁デクレ	-12.672
▁心がけ	-12.672
▁振り分け	-12.672
▁アドルフ	-12.672
▁遊牧	-12.672
▁グリップ	-12.672
▁オークランド	-12.672
アーケード	-12.672
▁plus	-12.672
▁まゆ	-12.672
▁白百合	-12.672
▁ウォーキング	-12.672
▁見せかけ	-12.6721
▁マンゴー	-12.6721
▁fang	-12.6721
▁サンクト	-12.6721
▁オークション	-12.6721
▁揃え	-12.6721
▁差し引	-12.6721
グルコース	-12.6721
ジョルジュ	-12.6721
チョク	-12.6721
デンプシー	-12.6721
▁おさめ	-12.6721
▁みさき	-12.6721
▁シスコ	-12.6721
▁蓄え	-12.6721
▁取り消	-12.6722
▁string	-12.6722
▁プロポー	-12.6722
▁ストラス	-12.6722
▁具志	-12.6723
キノン	-12.6723
▁beat	-12.6723
▁マリーナ	-12.6723
▁トリプル	-12.6723
ヴァイン	-12.6723
▁テディ	-12.6724
▁.)、	-12.6724
▁アイシン	-12.6725
▁戸惑	-12.6725
▁殺陣	-12.6725
▁ホープ	-12.6726
コファー	-12.6726
ホフ	-12.6726
▁クルト	-12.6726
▁関連付け	-12.6726
▁whip	-12.6727
▁歪	-12.6728
ltra	-12.6729
▁高架	-12.6729
▁アレイ	-12.6729
▁アレクシ	-12.6729
▁カルカ	-12.673
▁庄内	-12.673
▁大腸	-12.673
▁いただ	-12.6731
いちょう	-12.6731
ビンガム	-12.6732
▁天満	-12.6733
▁ブロンド	-12.6733
レイン	-12.6733
靱帯	-12.6734
thm	-12.6735
▁大牟田	-12.6736
▁真夜	-12.6737
▁汗	-12.6737
▁francis	-12.6737
▁アレキサン	-12.6738
▁サンバ	-12.6738
▁岩波	-12.6738
▁安曇	-12.6738
▁幕張	-12.6738
▁ヒューストン	-12.6739
▁オル	-12.6739
▁flow	-12.6739
▁アニソン	-12.6739
▁イチゴ	-12.674
▁roy	-12.674
▁パルプ	-12.674
▁うかが	-12.6741
メリベ	-12.6741
▁デュオ	-12.6741
▁住友	-12.6742
▁加古	-12.6744
▁スロット	-12.6746
▁待た	-12.6746
▁白血	-12.6747
▁コケ	-12.6748
▁kill	-12.6748
▁重なり	-12.6749
キド	-12.6749
ウィークリー	-12.6749
イガニ	-12.6749
▁白河	-12.675
▁ナタ	-12.675
▁ノブ	-12.675
▁コジ	-12.6752
▁コノ	-12.6752
rsa	-12.6753
▁グルカ	-12.6753
▁四角	-12.6754
ソーン	-12.6755
▁univers	-12.6757
▁office	-12.6757
ワット	-12.6757
▁踏ん	-12.6758
▁url	-12.6761
ソナ	-12.6761
▁赤城	-12.6761
▁勝ち進	-12.6762
▁曲げ	-12.6763
▁ケー	-12.6764
▁遊撃	-12.6764
rt	-12.6765
▁溺	-12.6765
isfa	-12.6768
タウンゼン	-12.6768
▁弼	-12.677
▁キーボーディスト	-12.677
▁ホフマン	-12.677
▁division	-12.677
▁風土	-12.677
▁アンソニー	-12.677
▁岩屋	-12.6771
▁忙し	-12.6772
▁マダ	-12.6773
▁バンクス	-12.6773
▁キラ	-12.6773
▁オリバー	-12.6774
▁見聞	-12.6775
▁master	-12.6775
▁cine	-12.6775
▁海水	-12.6776
リコ	-12.6777
ルーミング	-12.6777
スワン	-12.678
▁サニー	-12.678
▁マギー	-12.678
▁オーダー	-12.6782
▁玉川	-12.6786
グリア	-12.6786
▁ニコラス	-12.6786
アイユ	-12.6787
▁ガル	-12.6787
▁ガウス	-12.679
▁メモリ	-12.679
ざん	-12.6794
ナイダ	-12.6795
▁fuji	-12.6796
▁責め	-12.6797
トナ	-12.6797
▁買い取	-12.6797
増し	-12.6797
▁レア	-12.6797
▁山王	-12.6797
ぶろ	-12.6797
フリゲート	-12.6799
▁アンドレア	-12.68
ギニア	-12.6801
▁アドリア	-12.6802
▁堰	-12.6803
▁ニューアーク	-12.6804
▁レボリューション	-12.6804
シェアリング	-12.6804
▁オーム	-12.6804
▁ゼミ	-12.6804
▁エクセ	-12.6805
トマト	-12.6805
トシン	-12.6805
▁ゾル	-12.6806
▁ゴッド	-12.6806
ップフ	-12.6807
▁村田	-12.6808
ich	-12.6808
▁プラッツ	-12.6808
▁ジュネー	-12.681
▁風呂	-12.6811
ルザー	-12.6812
▁ヨン	-12.6816
▁ムック	-12.6816
▁イカ	-12.6818
▁門前	-12.6819
▁ジェニー	-12.682
▁垂れ	-12.682
▁楽屋	-12.6822
グント	-12.6822
▁刺さ	-12.6822
▁ベネディクト	-12.6822
▁art	-12.6824
▁ルネ	-12.6825
▁因み	-12.6826
▁イノベー	-12.6827
atch	-12.6829
▁hamm	-12.6833
▁表せ	-12.6834
sn	-12.6834
▁wish	-12.6837
▁—	-12.6837
▁徽	-12.6837
▁ナポリ	-12.6838
▁挙が	-12.6839
▁跳ね	-12.6839
▁ブルーザー	-12.6841
▁なんら	-12.6843
chen	-12.6844
▁インフ	-12.6845
▁バッド	-12.6845
▁クバ	-12.6845
▁オーバ	-12.6846
フラット	-12.6847
mili	-12.6847
▁西京	-12.6853
▁七つ	-12.6854
スカ	-12.6861
▁串	-12.6872
▁瓦	-12.6872
▁ふか	-12.6872
▁ローリング	-12.6875
ラクト	-12.6877
▁)"	-12.6879
▁答	-12.6879
▁スウィート	-12.6879
thur	-12.6883
▁dip	-12.6884
▁bug	-12.6885
▁国分	-12.6886
▁ボク	-12.6886
▁ミノム	-12.689
パイア	-12.6891
カーシェア	-12.6892
▁掘り出	-12.6899
アノ	-12.6903
▁イワ	-12.6903
▁ベー	-12.6904
▁アーロ	-12.6906
ーシュ	-12.6907
▁アテン	-12.6907
▁ストーム	-12.691
▁名高	-12.6911
▁riz	-12.6914
▁議事	-12.6917
ライオンズ	-12.6917
つい	-12.6917
▁商売	-12.6918
トラム	-12.6923
▁robert	-12.6923
▁シェパー	-12.6924
▁テント	-12.6925
▁チャイ	-12.6929
▁吊り	-12.6929
▁デル	-12.6934
▁モット	-12.6934
ピエ	-12.6935
▁目論	-12.6936
▁start	-12.6937
saki	-12.6938
▁脂	-12.6941
▁ひん	-12.6942
▁ケンタ	-12.6943
▁キャップ	-12.6947
ギュス	-12.695
▁ten	-12.695
▁sat	-12.6956
▁損な	-12.6957
ムーヴ	-12.6958
que	-12.6958
reet	-12.6958
タウ	-12.6959
リッチ	-12.6964
▁pm	-12.6966
ori	-12.6967
ローブ	-12.6967
utler	-12.697
▁ir	-12.6972
▁meg	-12.6972
▁chat	-12.6974
▁laz	-12.6975
▁ボリ	-12.6977
▁ウィット	-12.6978
ジマ	-12.698
▁きめ	-12.6985
アット	-12.6987
ck	-12.6991
うとう	-12.6992
ari	-12.6994
ick	-12.6996
▁ジュベ	-12.6997
▁bp	-12.7
▁ハプ	-12.7
43	-12.7
▁返り	-12.7001
▁shin	-12.7001
rine	-12.7007
▁ball	-12.7008
▁ピト	-12.701
▁摩	-12.7011
▁農作	-12.7014
ッセル	-12.7015
データ	-12.7016
なす	-12.7018
▁逃げ込	-12.7018
リクレ	-12.7027
イブン	-12.7028
▁えり	-12.7029
ism	-12.703
▁アヴィ	-12.7033
ーダ	-12.7033
ash	-12.7035
ぶた	-12.704
▁くし	-12.704
▁忘	-12.7042
▁哀	-12.7045
▁嶋	-12.7045
ーロ	-12.7048
▁ベルビ	-12.7051
▁リュウ	-12.7052
231	-12.7055
ブーン	-12.7055
ロッコ	-12.7057
▁マニア	-12.706
▁見張	-12.7064
▁切ら	-12.7067
▁中西	-12.7069
▁アヤ	-12.7072
▁wa	-12.7073
ンダ	-12.7074
▁意地	-12.7075
ばら	-12.7075
ウメ	-12.7076
▁])	-12.7077
▁ゴッ	-12.7078
▁pt	-12.7079
▁飼い	-12.7079
ーザイン	-12.708
moto	-12.7081
▁碁	-12.7082
▁fan	-12.7087
end	-12.7089
▁われ	-12.7089
▁sing	-12.709
モード	-12.7092
▁前頭	-12.7092
まず	-12.7092
▁入り込	-12.71
トロン	-12.7104
クザ	-12.7104
▁472	-12.7105
スブルク	-12.7107
▁薦	-12.7111
▁ste	-12.7112
エンタープライ	-12.7115
▁小田	-12.7115
テーク	-12.7118
スピアー	-12.7123
▁ram	-12.7125
▁水月	-12.7125
▁ダビ	-12.7125
▁出入	-12.7126
バナ	-12.7129
チャン	-12.7131
scape	-12.7133
▁エージェンシ	-12.7145
サディ	-12.7146
▁pb	-12.715
▁coc	-12.7154
ウェルズ	-12.7158
かけ	-12.716
キティ	-12.7164
die	-12.7171
エステル	-12.7171
▁ボーン	-12.7172
リンズ	-12.7174
ラト	-12.7174
68	-12.7177
コル	-12.7182
がれ	-12.7185
ボラ	-12.7191
▁乞	-12.7191
▁吏	-12.7191
▁hen	-12.7193
▁スカン	-12.7195
▁入間	-12.7201
▁rv	-12.7202
▁ドク	-12.7203
▁bee	-12.7206
▁510	-12.7208
▁よっ	-12.7208
▁国文	-12.7214
スパ	-12.7219
▁trip	-12.7223
ラギ	-12.7225
ーボ	-12.7225
▁あず	-12.7228
▁西大	-12.7239
▁イェ	-12.7241
▁スクリ	-12.7242
パール	-12.7245
ctive	-12.7247
▁pat	-12.7251
nier	-12.7256
▁395	-12.7258
こし	-12.7259
ナジ	-12.7264
▁蒙	-12.7265
▁占い	-12.7266
▁預	-12.7267
▁シカ	-12.7269
▁ショット	-12.727
▁132	-12.7274
ュッセル	-12.7274
dle	-12.7281
▁ひた	-12.7296
▁スタント	-12.7298
スーパー	-12.7299
▁ルネサ	-12.73
▁百合	-12.7307
ほんの	-12.7308
▁ファル	-12.7313
▁カイリ	-12.7323
▁オプ	-12.7323
らず	-12.7325
ヤド	-12.7328
▁ドレス	-12.7329
ack	-12.7332
▁ハンク	-12.7339
von	-12.7349
▁流れ込	-12.7351
リアー	-12.736
▁ピリ	-12.7362
フォール	-12.7366
ロムニ	-12.7368
渡し	-12.7369
田原	-12.737
寄	-12.7372
ツコ	-12.7379
シャワ	-12.7386
なぎ	-12.7389
ステイン	-12.7389
スローン	-12.7392
かわり	-12.7396
▁アルゴ	-12.7398
キーパー	-12.7399
ビーチ	-12.74
▁タム	-12.7405
ーサ	-12.7405
▁mad	-12.7406
ズベリー	-12.7407
▁グー	-12.7407
島本	-12.7413
ンショウ	-12.7416
▁チア	-12.7416
レック	-12.7422
ニモ	-12.7423
▁ハマー	-12.7427
ゅん	-12.7428
ンザ	-12.743
▁サンプ	-12.7436
沃	-12.7438
タク	-12.7442
コード	-12.7452
▁リリア	-12.7456
▁ブルーム	-12.7458
たか	-12.746
▁動け	-12.746
▁アンドロ	-12.7461
縫	-12.7463
▁廷	-12.7465
▁いせ	-12.7465
ville	-12.7471
▁yama	-12.7472
カチ	-12.7479
▁chi	-12.748
▁centr	-12.7484
赦	-12.7487
ミラクル	-12.7493
耶	-12.7496
ガッティ	-12.7497
梗	-12.7503
摩	-12.7503
アタッカー	-12.7507
ホークス	-12.7508
▁緯	-12.7509
枕	-12.751
リンゲン	-12.7513
キュン	-12.7514
桐	-12.7515
▁継ぎ	-12.7515
腎	-12.7518
▁バトン	-12.7518
債	-12.7519
澄	-12.752
ベール	-12.752
down	-12.7521
マドリード	-12.7521
ボーイ	-12.7521
杵	-12.7521
錯	-12.7522
舌	-12.7523
acetyl	-12.7526
試	-12.7526
晃	-12.7526
珠	-12.7526
百合	-12.7527
ny	-12.7527
シャッター	-12.7527
孔	-12.7528
靴	-12.7528
完	-12.7528
亀	-12.7528
需	-12.7529
慈	-12.7529
ディストリクト	-12.7529
昼	-12.7529
採	-12.753
軒	-12.753
傘	-12.753
賢	-12.753
▁ビジュアルアー	-12.753
エネルギー	-12.753
尚	-12.753
氷	-12.753
宣	-12.7531
包	-12.7531
_	-12.7531
鎮	-12.7531
君	-12.7531
▁ブレン	-12.7531
メタル	-12.7531
ハード	-12.7532
ッコ	-12.7536
▁大明	-12.7536
ネルソン	-12.7538
カブ	-12.7539
検査	-12.7539
ラレル	-12.7541
ミラー	-12.7544
ケース	-12.7544
▁ag	-12.7545
ゆう	-12.7546
▁巡ら	-12.7551
ヨ	-12.7553
ミニ	-12.7556
▁lan	-12.7561
light	-12.7563
ざい	-12.7567
マート	-12.7571
sts	-12.7572
▁エビ	-12.7573
▁空け	-12.7576
▁ユキ	-12.7577
リッド	-12.7579
ンシュタイン	-12.7579
▁レーン	-12.7579
ロッカー	-12.7584
スカリア	-12.7584
ミラ	-12.7585
トロイ	-12.7586
ak	-12.7589
▁溜め	-12.759
41	-12.7598
▁西小	-12.7604
ha	-12.7606
女子	-12.7608
▁追っ	-12.7612
くも	-12.7612
葛城	-12.7615
グス	-12.7629
▁ゆる	-12.7635
▁usa	-12.7637
▁ゴマ	-12.7637
▁パンク	-12.7642
dom	-12.7652
▁ミー	-12.7654
▁フレー	-12.7656
ウド	-12.7656
文化	-12.7663
pw	-12.7665
▁幡	-12.7672
クロ	-12.7673
eth	-12.7678
▁キャンディ	-12.7685
▁とこ	-12.7686
らえ	-12.7688
▁独り	-12.7689
▁アシュラ	-12.7689
▁206	-12.7691
ラミ	-12.7691
スコフ	-12.7696
▁リサイ	-12.7696
▁west	-12.7697
▁締め	-12.7698
イヤ	-12.7698
▁ぐら	-12.77
ぐり	-12.7702
▁塁	-12.7702
▁ブン	-12.7705
▁パラグ	-12.7707
▁先取	-12.7719
っしょ	-12.7722
▁ダイア	-12.7722
ドネ	-12.7732
▁東京電	-12.7735
▁イシ	-12.7735
sis	-12.7739
シティジムリーダー	-12.7744
ストーリー	-12.7759
▁ダブリ	-12.7761
▁ピッチ	-12.7761
んかん	-12.7761
▁ラジ	-12.7764
リュック	-12.7766
▁エフェク	-12.7766
▁読み取	-12.7768
▁ne	-12.7771
▁マネ	-12.7775
ボル	-12.7779
▁撲	-12.7779
ルレ	-12.7788
フォーレ	-12.7791
kle	-12.7793
amou	-12.7797
キリ	-12.78
ソム	-12.7809
▁化け	-12.7809
リオン	-12.7811
クサ	-12.7812
955	-12.7812
ディソン	-12.7814
ラモス	-12.7815
グナー	-12.782
▁mb	-12.782
牟田	-12.782
burg	-12.7821
▁410	-12.7824
野崎	-12.7826
▁インデペンデ	-12.7827
▁エアー	-12.7827
▁540	-12.7827
▁琵琶	-12.7829
▁バッキンガム	-12.7829
イレブン	-12.783
▁コスチューム	-12.783
パネラ	-12.783
▁プレッシャー	-12.783
▁cetiosaur	-12.783
▁ジグルハゼル	-12.783
▁ニューイングランド	-12.783
▁heaven	-12.783
▁joseph	-12.783
▁magazine	-12.783
▁μ	-12.783
▁エキセドリン	-12.783
▁ジバコ	-12.783
▁ダイジェスト	-12.783
▁マケドニア	-12.783
▁䴥	-12.783
▁嘔	-12.783
▁堕	-12.783
▁壽	-12.783
▁巫	-12.783
▁彷徨	-12.783
▁或	-12.783
▁按	-12.783
▁朔	-12.783
▁柚	-12.783
▁棍	-12.783
▁歓楽	-12.783
▁比叡	-12.783
▁炸	-12.783
▁當	-12.783
▁眉	-12.783
▁禧	-12.783
▁積み重ね	-12.783
▁竇	-12.783
▁竪	-12.783
▁臀	-12.783
▁芽生え	-12.783
▁蓬	-12.783
▁蔡	-12.783
▁蕙	-12.783
▁髙	-12.783
■	-12.783
〇	-12.783
〔	-12.783
〕	-12.783
アーティスツ	-12.783
丙	-12.783
叉	-12.783
帖	-12.783
拷	-12.783
暢	-12.783
梓	-12.783
濯	-12.783
犍	-12.783
礫	-12.783
禰	-12.783
竿	-12.783
羌	-12.783
胤	-12.783
苞	-12.783
蜷	-12.783
觚	-12.783
誨	-12.783
贄	-12.783
迂	-12.783
遵	-12.783
隴	-12.783
騰	-12.783
鬚	-12.783
鴎	-12.783
ε	-12.783
▁village	-12.783
▁おもしろ	-12.783
▁インストゥルメンタル	-12.783
▁タイタニック	-12.783
▁万国博覧会	-12.783
こふん	-12.783
▁legend	-12.783
▁manpad	-12.783
▁technolog	-12.783
▁wonder	-12.783
▁ぶら下が	-12.783
▁巻き起こ	-12.783
メドウズ	-12.783
imeru	-12.783
▁スタテンアイランド	-12.783
▁プリンシパル	-12.783
▁恥ずかし	-12.783
プキンス	-12.783
▁送り届け	-12.783
サウスショア	-12.783
▁ノルマンディ	-12.783
eace	-12.783
▁飛び降り	-12.783
room	-12.783
▁エイドリアン	-12.783
▁メカコレ	-12.783
▁サルデ	-12.783
▁パノラマ	-12.783
▁ボルボ	-12.783
▁ミッドアメリカ	-12.783
▁destin	-12.783
▁シルヴィサウルス	-12.783
▁keyboard	-12.783
▁distri	-12.783
▁ユーティカ	-12.783
▁グラスゴー	-12.783
▁痺れ	-12.783
▁miho	-12.783
▁alpha	-12.783
▁ニトロ	-12.783
▁chika	-12.783
▁折り返	-12.783
▁三菱重工	-12.783
▁塗り替え	-12.783
▁spring	-12.783
▁プリメーラ	-12.783
▁インターコンチネンタル	-12.783
▁ミューア	-12.783
▁snow	-12.783
▁シルヴィア	-12.783
▁journ	-12.783
▁ウォルター	-12.783
▁スポーク	-12.783
▁同窓	-12.783
▁ケビン	-12.7831
▁目覚まし	-12.7831
▁ピーチ	-12.7831
▁青銅	-12.7831
▁持ち上が	-12.7831
▁送り返	-12.7831
▁winter	-12.7831
▁union	-12.7831
▁ドーパ	-12.7831
がっかい	-12.7831
▁ジゼル	-12.7831
ボラト	-12.7831
▁ジョゼ	-12.7831
▁dgtp	-12.7831
▁エレクトロニック	-12.7831
▁カルヴァン	-12.7831
▁小麦	-12.7832
▁セリフ	-12.7832
▁乗り上げ	-12.7832
▁louis	-12.7832
▁ジャッキー	-12.7832
シュトラー	-12.7832
▁興味深	-12.7832
ジブリ	-12.7832
クライスト	-12.7832
▁小笠原	-12.7832
▁放浪	-12.7832
▁駒澤	-12.7832
▁佳奈	-12.7832
インストラクター	-12.7832
▁ニューオーリンズ	-12.7832
▁関西学院	-12.7833
▁土砂	-12.7833
▁edward	-12.7833
▁慈善	-12.7833
▁イスラ	-12.7833
▁つなげ	-12.7833
▁アマリ	-12.7833
▁読み上げ	-12.7833
サンチェス	-12.7834
クリヴォシ	-12.7834
▁グレーター	-12.7834
▁インフラ	-12.7835
▁パーキング	-12.7835
▁ヘパ	-12.7835
▁river	-12.7835
ペテ	-12.7835
▁競い合	-12.7835
▁京浜	-12.7835
▁瀬戸内	-12.7835
▁ハチ	-12.7835
キョウ	-12.7835
р	-12.7836
▁ジュリアン	-12.7836
▁メルク	-12.7836
▁トロリー	-12.7836
クロッシング	-12.7836
トゥメン	-12.7836
エゾ	-12.7837
▁サウル	-12.7837
▁リフォーム	-12.7837
▁temp	-12.7837
▁official	-12.7837
▁maz	-12.7838
▁浄化	-12.7838
▁カゲ	-12.7838
ルダス	-12.7838
▁飛び回	-12.7838
▁浅瀬	-12.7838
離れ	-12.7839
▁vivi	-12.7839
▁アルキ	-12.784
▁パブ	-12.784
▁窪田	-12.784
other	-12.7841
▁最寄り	-12.7841
アラク	-12.7842
フーバー	-12.7843
▁大隈	-12.7843
▁ウェンディ	-12.7843
▁暴風	-12.7844
▁乃木	-12.7844
▁eternal	-12.7844
▁ビークス	-12.7845
yui	-12.7846
▁zep	-12.7846
▁見積も	-12.7847
アゴ	-12.7848
ni	-12.785
▁賄	-12.785
▁眠れ	-12.7851
▁ホノ	-12.7851
▁取り囲	-12.7851
▁唾	-12.7851
▁裾	-12.7851
▁point	-12.7851
▁シュナプセン	-12.7851
▁ソルトレイクシティ	-12.7851
▁リニアコライダー	-12.7851
▁ブリストル	-12.7851
▁アディダス	-12.7851
▁ハイパーループ	-12.7851
▁マハノイ	-12.7851
▁アマンダ	-12.7851
▁久留米	-12.7852
▁サプライズ	-12.7852
▁周防	-12.7852
▁濡れ	-12.7852
▁連れ去	-12.7852
レンツ	-12.7852
▁ヨリ	-12.7852
▁ディノス	-12.7853
▁ウェブスター	-12.7853
▁pw	-12.7853
▁奏で	-12.7853
ウシュウ	-12.7854
イチ	-12.7855
▁滝野	-12.7856
▁white	-12.7857
▁険し	-12.7857
ィーヌ	-12.7857
idas	-12.7857
uv	-12.7858
▁殴り	-12.7858
arante	-12.7858
like	-12.7858
▁ロックンロー	-12.7859
ガルシア	-12.7859
勝ち	-12.7859
▁エコノミ	-12.786
レター	-12.786
▁寂し	-12.786
▁クラウス	-12.7862
▁artist	-12.7863
ワザ	-12.7864
▁ジャム	-12.7864
▁プライス	-12.7864
▁サメ	-12.7866
ウオ	-12.7866
▁groove	-12.7867
▁direct	-12.7871
▁kind	-12.7872
キッチン	-12.7873
▁城北	-12.7873
▁pont	-12.7873
▁ポルフィラ	-12.7874
▁真美	-12.7875
▁old	-12.7875
▁publi	-12.7876
▁降ろ	-12.7876
▁.(	-12.7877
▁国税	-12.7879
▁仁明	-12.7879
▁スマホ	-12.788
利き	-12.788
▁ヨコ	-12.7881
▁弘前	-12.7882
▁水酸	-12.7886
テージ	-12.7886
▁深海	-12.7886
▁トルネイドー	-12.7887
ピウス	-12.7888
▁塩野	-12.7888
▁着せ	-12.7889
▁人道	-12.789
▁スコ	-12.7891
▁イッツ	-12.7891
▁申込	-12.7891
▁専修大学	-12.7892
▁ぶっ	-12.7892
▁東急	-12.7894
▁切り開	-12.7895
▁ウィンター	-12.7896
▁プランク	-12.7898
74	-12.7899
▁イソ	-12.7901
チャリティー	-12.7901
▁向き合	-12.7902
マミー	-12.7902
▁正三	-12.7903
▁西ケ	-12.7905
aska	-12.7905
▁prime	-12.7906
インテル	-12.7907
▁sr	-12.791
▁sim	-12.7912
ella	-12.7912
イスク	-12.7912
▁フィロ	-12.7913
▁平尾	-12.7915
▁残せ	-12.7917
▁ロニー	-12.7917
▁スマートフォン	-12.7918
▁レチ	-12.7919
hg	-12.7921
マンハッ	-12.7922
▁かじ	-12.7924
▁蓑	-12.7925
▁訛	-12.7925
▁インタ	-12.7925
▁デルタ	-12.7927
▁ディスコ	-12.7928
つか	-12.7929
▁オウル	-12.7929
▁イロ	-12.7929
▁bull	-12.793
▁アルベルト	-12.7931
ゲロー	-12.7932
ang	-12.7932
メリー	-12.7933
▁フモ	-12.7933
▁真正	-12.7934
▁乱れ	-12.7935
ンポジ	-12.7936
▁イエロー	-12.7936
がい	-12.7936
▁シェーン	-12.7936
▁西北	-12.7937
▁話せ	-12.7938
ユウ	-12.7941
▁かっこ	-12.7941
▁サンディ	-12.7943
カトラ	-12.7943
wg	-12.7944
▁ひめ	-12.7946
ワース	-12.7948
▁ベルク	-12.7949
her	-12.7949
▁アダプタ	-12.795
onic	-12.7951
39	-12.7952
テロップ	-12.7953
oem	-12.7953
loop	-12.7957
チューン	-12.7958
フェン	-12.7962
▁膳	-12.7963
▁キャプ	-12.7964
▁ジェル	-12.7964
▁チェイス	-12.7964
▁ベンチャー	-12.7965
▁カウンティ	-12.7965
▁シークレット	-12.7965
▁サキ	-12.7966
▁テイク	-12.7967
▁バルブ	-12.7968
980	-12.7968
▁deeper	-12.7969
▁town	-12.7971
zw	-12.7972
ya	-12.7978
▁tac	-12.7979
がみ	-12.798
▁どん	-12.7982
▁アンチ	-12.7983
▁ハヤ	-12.7985
▁kra	-12.7985
▁660	-12.7985
▁pass	-12.7989
▁file	-12.7991
ホース	-12.7991
▁ガーディア	-12.7994
▁カオ	-12.7994
ーゲル	-12.7997
ーイング	-12.7998
リーノ	-12.8002
▁淑	-12.8002
▁エクストリーム	-12.8002
▁メイウェザー	-12.8002
444	-12.8004
▁セクショ	-12.8004
▁不意	-12.8005
▁大神	-12.801
▁ファーム	-12.8011
▁ウェザー	-12.8013
▁三輪	-12.8014
ランシー	-12.8015
▁ニュータ	-12.8017
▁身の	-12.8019
▁パセ	-12.8021
▁クロー	-12.8022
カーネル	-12.8023
文学	-12.8024
▁持ち帰	-12.8024
▁早川	-12.8024
▁マト	-12.8028
ンキー	-12.8028
▁シリンダ	-12.8029
タサ	-12.8029
宇和	-12.8031
ダレン	-12.8032
タイムス	-12.8035
▁コレヒ	-12.8038
▁ぇ	-12.8041
▁張り出	-12.8041
▁舞い	-12.8045
▁イケ	-12.8045
ーミング	-12.8048
▁ho	-12.8049
▁下半	-12.8052
ビッド	-12.8053
ite	-12.8054
レジャー	-12.8055
▁ウェイク	-12.8056
チカン	-12.8057
イルス	-12.8057
▁ヴェ	-12.8058
▁アディ	-12.8058
▁mari	-12.8061
▁ホリー	-12.8063
タロー	-12.8063
▁ヴェラ	-12.8065
▁ヴァルト	-12.807
▁ローマン	-12.807
▁pit	-12.807
▁逃が	-12.8072
ばな	-12.8077
▁麟	-12.808
▁エイキ	-12.8082
▁rain	-12.8084
enji	-12.8085
▁ルター	-12.8089
ヴァル	-12.8091
▁ju	-12.8093
▁引き抜	-12.8097
▁河原	-12.8098
グン	-12.8102
インドア	-12.8108
▁スクー	-12.811
メデ	-12.8116
クソ	-12.8116
▁鷹	-12.812
▁ファインダー	-12.8121
▁オクタ	-12.8128
ハール	-12.8128
▁インスタント	-12.8129
チーズ	-12.8131
プロボ	-12.8131
どうじ	-12.8132
▁カーター	-12.8133
▁乗用	-12.8137
200	-12.814
ike	-12.8141
おんな	-12.8143
▁ネック	-12.8144
ベー	-12.8144
▁シュロ	-12.8145
▁745	-12.8146
ade	-12.8146
メニ	-12.8149
▁葛城	-12.8154
▁ストライ	-12.8157
川田	-12.8159
▁枕	-12.816
▁エマ	-12.816
here	-12.8161
▁ティーンエ	-12.8162
▁ミット	-12.8166
▁チャーチ	-12.817
ビグ	-12.8171
▁盛り	-12.8174
ルゴ	-12.8175
▁opera	-12.8181
▁プラモ	-12.8182
for	-12.8187
nba	-12.8187
ブロー	-12.8189
▁pp	-12.8193
▁舵	-12.82
▁癒	-12.82
▁磐	-12.82
モンセ	-12.8202
▁やれ	-12.8203
▁ゼン	-12.8219
▁usb	-12.822
▁caf	-12.8225
こえ	-12.8228
レッタ	-12.8232
ベーション	-12.8234
▁fip	-12.8234
フェル	-12.8236
▁parad	-12.8243
ヴェー	-12.8244
▁ジオン	-12.8251
enter	-12.8255
▁ser	-12.8259
▁cur	-12.826
ノック	-12.8263
ニスタ	-12.8264
ray	-12.8268
ディット	-12.8269
▁460	-12.8271
▁tool	-12.8273
▁パルミ	-12.8276
▁北村	-12.8276
nova	-12.8281
▁jo	-12.8284
ラガ	-12.8286
イキング	-12.8286
▁476	-12.8287
われ	-12.8288
▁ヘイガ	-12.8291
経済大学	-12.8291
▁大空	-12.8298
▁ユーリ	-12.8299
▁カツ	-12.8301
デック	-12.8307
コンド	-12.8311
▁バンビ	-12.8311
fort	-12.8312
ゲエ	-12.8312
▁スチューデン	-12.8318
ドーナ	-12.8318
ヒーローズ	-12.8318
ズボロ	-12.8319
▁マオ	-12.8319
ンジケー	-12.8319
▁マルティ	-12.8321
▁ヴェル	-12.8324
ータール	-12.8325
▁turn	-12.8325
▁さよ	-12.8327
▁リウ	-12.833
ナハ	-12.8333
ーネ	-12.8336
▁コッ	-12.8337
▁戦場	-12.8337
ones	-12.8342
▁だま	-12.8342
イム	-12.8344
▁ピース	-12.8349
▁コサ	-12.8351
sm	-12.8351
▁ブレイブ	-12.8362
▁宴	-12.8365
▁def	-12.8365
)、	-12.8371
ヤック	-12.8373
クール	-12.8378
une	-12.8389
カミ	-12.8392
▁スリラ	-12.8395
▁val	-12.8397
▁426	-12.84
▁っし	-12.8404
ずく	-12.8405
▁バッハ	-12.8409
red	-12.8411
▁キバ	-12.8411
グウェ	-12.8413
づ	-12.8413
▁ヌー	-12.8414
ロナ	-12.8414
800	-12.8419
レフト	-12.8423
リッパ	-12.8423
▁金田	-12.8428
▁サンダー	-12.843
▁メフ	-12.8431
チナ	-12.8439
▁取り出	-12.8443
▁チョン	-12.8444
▁廊	-12.8449
ピート	-12.845
テナン	-12.8451
▁日吉	-12.8456
ッセン	-12.8459
▁スタ	-12.8461
▁テオ	-12.8464
払い	-12.8466
ure	-12.8468
ペティ	-12.8471
▁ae	-12.8473
▁ボカ	-12.8475
カラ	-12.8482
フォル	-12.8483
コパ	-12.8484
ッセ	-12.8485
イツ	-12.8486
んこう	-12.849
▁cor	-12.8494
▁リアス	-12.8495
フィエ	-12.8506
▁ウィング	-12.8506
sp	-12.8507
ッダ	-12.8507
▁ラボ	-12.8511
ェン	-12.8519
▁318	-12.8523
▁ルザ	-12.8524
▁ever	-12.8525
▁成し	-12.8527
▁glor	-12.8531
潟	-12.8533
▁548	-12.8534
▁サリ	-12.8538
▁ワイヤ	-12.8538
▁ポピ	-12.8549
コーン	-12.8549
カサ	-12.8551
リーン	-12.8554
▁長久	-12.8555
▁ムン	-12.8556
▁択	-12.8561
マト	-12.857
ドリック	-12.8571
イソ	-12.8571
mer	-12.8572
んこ	-12.8577
è	-12.8577
▁ウィンス	-12.8578
▁wm	-12.858
マダ	-12.8585
クラウド	-12.8593
▁ティル	-12.8594
俸	-12.8596
妬	-12.8596
rac	-12.8603
▁カント	-12.8609
pl	-12.8612
▁スワ	-12.8616
レーク	-12.8616
ソブ	-12.8619
▁アロ	-12.8637
カルノ	-12.8643
▁コンバー	-12.8644
▁アルメ	-12.8651
kin	-12.8651
▁家政	-12.8661
ニウム	-12.8666
▁hel	-12.8669
▁カモ	-12.8671
▁ぜん	-12.8673
トニー	-12.8677
イダ	-12.8681
▁そびえ	-12.8682
プレー	-12.8684
▁エレクトロ	-12.8692
喬	-12.8694
▁bo	-12.8698
チャーチ	-12.87
ジャック	-12.8703
▁フィル	-12.8703
▁dtm	-12.8704
ーパー	-12.8705
ケルト	-12.8706
酔	-12.8707
▁sket	-12.8712
▁how	-12.8714
スキャナ	-12.8714
▁290	-12.8715
ズラ	-12.8716
▁ピクチャー	-12.8718
バーク	-12.8718
▁rob	-12.872
▁clos	-12.8722
ラウンド	-12.8722
樫	-12.8724
"→	-12.8726
937	-12.873
」、「	-12.873
苦	-12.8733
▁ash	-12.8734
ヴェイ	-12.8736
▁フセ	-12.8738
レオポルディ	-12.8739
cycl	-12.874
鞭	-12.8743
ナウ	-12.8743
コンポ	-12.8746
mann	-12.8747
ストラーダ	-12.8747
activ	-12.875
バトラー	-12.8753
▁仕切	-12.8755
おふ	-12.8755
伴	-12.8756
ディストリビュー	-12.8757
匿	-12.8758
ンティン	-12.8759
ファインダー	-12.876
鷹	-12.8761
ダッチ	-12.8761
バーンズ	-12.8761
鮮	-12.8762
og	-12.8763
レイド	-12.8766
コロムビア	-12.8766
**	-12.8767
墾	-12.8768
▁ウイ	-12.8769
凸	-12.8769
秩	-12.877
牢	-12.8771
ise	-12.8772
パニック	-12.8772
嘆	-12.8772
セナ	-12.8773
暑	-12.8773
lk	-12.8774
メソ	-12.8774
臼	-12.8774
マウンテン	-12.8774
仙	-12.8775
ドキ	-12.8775
肌	-12.8775
濃	-12.8775
掌	-12.8775
ジョセフ	-12.8775
庵	-12.8776
鍋	-12.8776
祀	-12.8776
ヴォーン	-12.8776
廻	-12.8776
ジャクソン	-12.8777
運輸	-12.8777
▁ラング	-12.8777
舟	-12.8777
フランクリン	-12.8777
依	-12.8777
セックス	-12.8777
▁ウェス	-12.8777
補	-12.8777
顎	-12.8777
耕	-12.8778
班	-12.8778
健	-12.8778
杏	-12.8778
祐	-12.8778
涼	-12.8778
レディース	-12.8779
菊	-12.8779
ムービー	-12.8779
浩	-12.8779
飼	-12.878
ミサイル	-12.878
虎	-12.878
薄	-12.878
硬	-12.878
バラエティ	-12.878
囚	-12.878
コンサート	-12.878
オデヲン	-12.878
スタッフ	-12.878
ガーデン	-12.878
牛	-12.878
午	-12.8781
巨	-12.8781
フォーリー	-12.8784
アセチル	-12.8784
水浴	-12.8785
▁アプ	-12.8786
ラグ	-12.8788
▁くも	-12.8797
▁zon	-12.8797
ウィット	-12.8798
965	-12.8799
ニクス	-12.8801
遊び	-12.8804
▁原動	-12.8805
クラス	-12.8805
▁カビ	-12.8811
ミラン	-12.8814
敷き	-12.8814
ピード	-12.8815
ニーナ	-12.8815
メール	-12.8816
▁モト	-12.8816
フュ	-12.8817
▁溜	-12.8818
▁act	-12.8819
パートナー	-12.882
ical	-12.8825
▁wo	-12.8826
▁ゅつ	-12.8828
ポルト	-12.8832
レーリ	-12.8834
ヅ	-12.8836
hl	-12.8839
▁スティ	-12.8839
▁づき	-12.884
ule	-12.8843
▁ガラ	-12.8843
ィスト	-12.8844
▁アンケ	-12.8844
トゥル	-12.8846
レッジ	-12.8846
かさ	-12.8848
オモ	-12.885
ディビ	-12.8855
▁かめ	-12.8871
ンパイア	-12.8874
▁bj	-12.8883
▁ats	-12.8888
▁492	-12.8892
びと	-12.8892
▁mik	-12.8892
▁噛み	-12.8893
製作	-12.8897
▁nca	-12.89
▁hop	-12.8903
テルス	-12.8903
加え	-12.8904
▁推し	-12.8906
大西	-12.8907
▁memori	-12.8909
エリア	-12.8911
▁ホース	-12.8913
ルネ	-12.8914
▁オイ	-12.8916
▁セー	-12.8917
mk	-12.8922
▁ハス	-12.8928
▁ラズ	-12.8928
▁東京女子	-12.893
たまり	-12.8935
▁ant	-12.8935
▁340	-12.8936
▁マキ	-12.8936
巻き	-12.8939
▁販	-12.8945
コス	-12.8947
ランバート	-12.8949
テマ	-12.8954
オネ	-12.8958
ュート	-12.8959
▁なめ	-12.896
ジカ	-12.8962
リーク	-12.897
▁いさ	-12.8977
▁mid	-12.8986
▁怪し	-12.899
▁call	-12.8991
▁ルータ	-12.8997
ケアン	-12.9002
▁ネイル	-12.9003
ハラ	-12.9004
io	-12.9006
▁カナ	-12.9007
ké	-12.9014
▁514	-12.9014
▁ロミ	-12.9017
genes	-12.9022
004	-12.9025
▁ブラシ	-12.9027
▁とお	-12.9028
sat	-12.9039
▁ルナ	-12.9046
▁astro	-12.9049
レベル	-12.9049
フェクト	-12.905
∞	-12.9052
▁ケロ	-12.9054
lette	-12.906
ルル	-12.9066
ッハ	-12.9069
▁感じ取	-12.9069
シルフ	-12.9073
▁湧き	-12.9074
▁seven	-12.9077
▁アナスタシ	-12.9077
鐵	-12.9079
コンチネンタル	-12.9079
蹄	-12.908
▁爽	-12.908
▁experi	-12.908
▁イオウイロ	-12.908
▁クラウドファンディング	-12.908
▁パワフル	-12.908
«	-12.908
»	-12.908
η	-12.908
▁galax	-12.908
▁longitude	-12.908
▁virgin	-12.908
▁ゐ	-12.908
▁アズマゲンゴロウモドキ	-12.908
▁アントラキノン	-12.908
▁イコモス	-12.908
▁イナズマイレブン	-12.908
▁オーソドックス	-12.908
▁ダイハツ	-12.908
▁テリトリー	-12.908
▁デデキント	-12.908
▁ドイルスタウン	-12.908
▁ナエトル	-12.908
▁ニュルンベルク	-12.908
▁パナソニック	-12.908
▁ベストウイッシュ	-12.908
▁メノクラゲ	-12.908
▁ロサリオ	-12.908
▁傳	-12.908
▁其	-12.908
▁厭	-12.908
▁大磯	-12.908
▁岷	-12.908
▁怨	-12.908
▁悌	-12.908
▁摺	-12.908
▁断崖	-12.908
▁晒	-12.908
▁杭	-12.908
▁某	-12.908
▁楢	-12.908
▁盲	-12.908
▁菖蒲	-12.908
▁蝦	-12.908
▁裴	-12.908
▁詔	-12.908
▁謹	-12.908
▁貯め	-12.908
▁關	-12.908
▁頴	-12.908
▁鼎	-12.908
◆	-12.908
亨	-12.908
佟	-12.908
吻	-12.908
團	-12.908
堵	-12.908
塀	-12.908
嫉	-12.908
擲	-12.908
泯	-12.908
渤	-12.908
狸	-12.908
疇	-12.908
盈	-12.908
站	-12.908
箸	-12.908
緬	-12.908
腺	-12.908
與	-12.908
芭	-12.908
苫	-12.908
蕉	-12.908
蹟	-12.908
▁くわえ	-12.908
▁アルガルヴェ	-12.908
▁エブリデイ	-12.908
▁スペンサー	-12.908
▁ティフアナ	-12.908
▁ミッドアトランティック	-12.908
▁モハメド	-12.908
▁宝立町	-12.908
▁ordet	-12.908
▁ツァイス	-12.908
▁帝塚山	-12.908
▁譲り受け	-12.908
▁abema	-12.908
ピレーション	-12.908
▁combin	-12.908
▁remix	-12.908
▁dark	-12.908
▁feder	-12.908
▁ウエスタン	-12.908
▁グルーヴ	-12.908
ل	-12.908
▁オリコンシングルチャート	-12.908
▁great	-12.908
▁クラウディア	-12.908
▁カザフ	-12.908
▁グランクラス	-12.908
▁learn	-12.908
▁サロモン	-12.908
▁明け暮れ	-12.908
▁さかのぼ	-12.908
ゴンサレス	-12.908
▁突き刺	-12.908
▁サマンサ	-12.908
▁sharp	-12.908
▁寄り添	-12.908
▁引き寄せ	-12.908
▁突き止め	-12.908
▁rhy	-12.908
▁スマトラ	-12.908
▁number	-12.908
▁ミーティング	-12.908
▁ホスホグリ	-12.908
▁ハクサン	-12.908
▁メインイベン	-12.908
▁書き換え	-12.908
▁ペントース	-12.908
▁小田急	-12.908
▁アンドロイド	-12.908
▁ナンシー	-12.908
ón	-12.9081
ジエステル	-12.9081
リビア	-12.9081
▁ラーニング	-12.9081
コーストリーグ	-12.9081
▁休耕	-12.9081
エレクトリック	-12.9081
▁しょうが	-12.9081
▁スターチャイルド	-12.9081
▁ジョシュ	-12.9081
▁追い越	-12.9081
ゴロド	-12.9081
▁シャルム	-12.9081
▁阪急	-12.9081
▁レナード	-12.9081
セシール	-12.9081
▁義務付け	-12.9081
▁rail	-12.9081
▁大槌	-12.9081
▁ナンノ	-12.9081
綬章	-12.9081
▁マグニ	-12.9081
▁グレコ	-12.9081
▁萌え	-12.9081
oshino	-12.9082
▁hide	-12.9082
▁ストロー	-12.9082
▁advan	-12.9082
▁与謝	-12.9082
▁ジョブ	-12.9082
▁ソニック	-12.9082
▁モルガン	-12.9082
▁モルディ	-12.9082
▁ウィンド	-12.9082
▁鉄筋	-12.9083
エレクトーン	-12.9083
ダヴィド	-12.9083
▁ブリタニ	-12.9083
▁scri	-12.9083
▁歩き回	-12.9083
▁ウイング	-12.9083
▁通り抜け	-12.9083
イトマキ	-12.9083
ocea	-12.9083
▁揺ら	-12.9083
ジェラルド	-12.9084
▁アルカリ	-12.9084
pm	-12.9084
ャプ	-12.9084
inyl	-12.9084
▁that	-12.9084
▁律令	-12.9084
▁シェーヴ	-12.9084
▁産まれ	-12.9084
▁ボスニア	-12.9084
▁フランジ	-12.9084
▁ゲイリー	-12.9084
▁ルチャ	-12.9085
▁model	-12.9085
▁淡水	-12.9085
▁綾瀬	-12.9085
▁year	-12.9085
▁カーボン	-12.9085
▁裂け	-12.9085
▁hsd	-12.9086
▁ラッパー	-12.9086
▁ラプラス	-12.9086
タチアナ	-12.9086
▁デビー	-12.9086
アカデミア	-12.9087
▁負け越	-12.9087
ストレッチ	-12.9088
ストラット	-12.9088
▁オルモ	-12.9088
▁モーリス	-12.9088
▁噛み付	-12.9088
▁ブルーノ	-12.9088
▁spy	-12.9089
▁creation	-12.9089
▁ファミ	-12.9089
▁持ち上げ	-12.909
▁金魚	-12.909
▁武庫川	-12.909
モンガラ	-12.909
ヴェルディ	-12.9091
けんたい	-12.9091
▁ポートランド	-12.9091
▁草刈	-12.9092
レダク	-12.9092
ira	-12.9092
▁東京国際	-12.9092
utu	-12.9092
▁drum	-12.9093
▁ペイン	-12.9093
▁社会民主	-12.9094
▁不審	-12.9094
クスタ	-12.9094
▁三笠	-12.9095
▁etc	-12.9095
▁乗じ	-12.9095
▁555	-12.9096
▁哀れ	-12.9096
▁篠山	-12.9096
▁掴み	-12.9097
▁なぞ	-12.9097
▁plou	-12.9098
▁洋之	-12.9099
▁ana	-12.91
▁引き離	-12.91
▁浩一	-12.9101
▁寄宿	-12.9101
▁コカ	-12.9102
ストレプト	-12.9102
ピストル	-12.9103
▁rule	-12.9103
▁dvi	-12.9103
▁ナミ	-12.9103
トロペ	-12.9103
▁スペクト	-12.9104
▁染み	-12.9104
▁寵	-12.9104
▁熾	-12.9104
▁鱗	-12.9104
▁煩	-12.9104
▁耀	-12.9104
▁institut	-12.9104
▁アクターズ	-12.9104
▁ファミリア	-12.9104
▁sos	-12.9105
▁アルカナー	-12.9105
▁リマスタ	-12.9105
▁コーネル	-12.9105
そく	-12.9105
▁ヴォルフ	-12.9105
▁angel	-12.9106
▁クビ	-12.9106
▁久米	-12.9106
プラン	-12.9106
▁シェフ	-12.9107
▁キッズ	-12.9107
▁ダイソン	-12.9108
▁見分け	-12.9109
▁bis	-12.911
▁フリップ	-12.911
▁リキ	-12.9111
anca	-12.9111
▁恵理	-12.9112
▁由里	-12.9112
ーパーズ	-12.9113
▁リターン	-12.9114
▁ドローン	-12.9114
▁シルヴァー	-12.9118
▁chie	-12.9118
ぞう	-12.9118
ゼリ	-12.9119
っ飛ば	-12.9119
▁スティグ	-12.9119
リーグレギュラー	-12.9119
▁フレドリ	-12.9119
▁ak	-12.9121
▁grand	-12.9121
アヤナ	-12.9122
▁リニア	-12.9124
マインド	-12.9124
▁アデニ	-12.9125
gger	-12.9126
▁アリスト	-12.9128
サリー	-12.9128
▁組み合わ	-12.9128
▁クロック	-12.9131
▁britis	-12.9132
moz	-12.9134
▁magic	-12.9135
ーニュ	-12.9135
ムード	-12.9136
▁宮津	-12.9137
▁インバー	-12.9137
フランシスコ	-12.9138
▁つよ	-12.9138
▁秘め	-12.9139
クエスト	-12.914
▁モトクロ	-12.914
▁取り外	-12.9141
▁コナー	-12.9141
▁クイーンズ	-12.9142
▁塩化	-12.9144
ヤス	-12.9144
▁銀色	-12.9144
▁ティア	-12.9144
▁バウンド	-12.9145
▁姑	-12.9146
▁毀	-12.9146
▁イノ	-12.9146
▁マルク	-12.9147
▁クリスティアン	-12.9147
ah	-12.9148
aja	-12.9148
▁名駅	-12.9149
▁"/	-12.915
フォレ	-12.9152
▁vv	-12.9153
cf	-12.9161
▁私有	-12.9162
rew	-12.9162
▁バズ	-12.9163
▁観覧	-12.9163
▁信州	-12.9164
▁忍び込	-12.9165
▁ハリス	-12.9166
▁アラモ	-12.917
▁常備	-12.917
▁comple	-12.9172
▁レバー	-12.9174
ルチ	-12.9176
ilc	-12.9177
uci	-12.9182
▁エスカレー	-12.9182
アルヘンティー	-12.9183
▁マック	-12.9184
▁パフォーマ	-12.9184
▁不平	-12.9187
バンギ	-12.9187
▁しゃべ	-12.9187
▁クライアント	-12.9189
inosit	-12.9189
サウ	-12.9189
▁step	-12.9189
▁デポルテ	-12.919
▁マクガ	-12.919
▁931	-12.919
▁伝馬	-12.9191
atri	-12.9192
▁雀	-12.9192
▁カド	-12.9192
リッパー	-12.9193
▁ルポ	-12.9195
▁bud	-12.9196
▁830	-12.9197
elieve	-12.9197
▁帝京	-12.9199
ハンマー	-12.9199
▁東邦	-12.9201
ンバサ	-12.9201
スタンプ	-12.9204
▁土産	-12.9205
ジング	-12.9205
▁アストロ	-12.9206
ベンダー	-12.921
▁未決	-12.921
▁サウロ	-12.9211
dk	-12.9212
▁ヘス	-12.9213
ラッシャー	-12.9213
▁陸海	-12.9214
日向	-12.9214
▁smil	-12.9215
▁好まし	-12.9215
▁チーフ	-12.9216
▁くだ	-12.9218
▁つみ	-12.9218
▁rose	-12.9219
▁真言	-12.922
pond	-12.9224
ヒェ	-12.9226
ison	-12.9227
▁エロ	-12.9227
▁小高	-12.923
▁弐	-12.9233
▁ブレイ	-12.9233
▁ブリッジポート	-12.9234
▁ネクスト	-12.9234
うかん	-12.9236
▁jis	-12.9237
セリエ	-12.9237
ーリントン	-12.9237
▁media	-12.9238
りゃ	-12.9238
▁おいし	-12.9239
▁ぶつけ	-12.9241
がん	-12.9243
ネア	-12.9246
▁恋し	-12.9246
▁噛みつ	-12.9247
▁モガ	-12.9251
▁ダナ	-12.9252
▁ミチ	-12.9252
▁mor	-12.9253
▁wash	-12.9254
ボア	-12.9258
lo	-12.9259
▁金井	-12.9259
alf	-12.9261
ビナ	-12.9262
▁ヨーゼフ	-12.9265
▁マハ	-12.9267
野原	-12.9268
coal	-12.927
タレス	-12.927
ナイダー	-12.9271
イス	-12.9272
▁締め切	-12.9276
▁マコノ	-12.9277
▁朋	-12.9277
▁不信	-12.9277
▁駄	-12.9277
ノヴァ	-12.928
▁ネーション	-12.9281
キップ	-12.9282
fj	-12.9284
eri	-12.9285
▁うね	-12.9285
ネック	-12.9287
▁well	-12.9289
▁かわい	-12.9289
▁lrd	-12.929
チー	-12.9291
▁荒れ	-12.9291
▁有り	-12.9292
リベルタドー	-12.9295
56	-12.9298
本興業	-12.9301
本願	-12.9304
▁jan	-12.9305
▁hib	-12.9307
ノット	-12.9311
かせ	-12.9311
▁みの	-12.9314
▁かぎ	-12.9315
ネー	-12.9319
▁キッ	-12.9321
▁\	-12.9322
▁ゴイア	-12.9322
▁ハリケーン	-12.9322
パンジ	-12.9322
▁隈	-12.9323
▁現住	-12.9324
▁adhe	-12.9325
▁すい	-12.9325
ir	-12.9326
▁244	-12.9326
▁エフ	-12.9328
▁cover	-12.9329
▁島原	-12.9331
やす	-12.9333
▁長け	-12.9336
▁wind	-12.9342
▁東村	-12.9345
▁バートン	-12.9345
▁ドロー	-12.9346
んと	-12.9349
▁ミッド	-12.9352
thala	-12.9353
▁コレ	-12.9356
▁西新	-12.9357
port	-12.9357
▁チョウ	-12.9359
▁祇	-12.9366
ぶり	-12.9368
▁ライアン	-12.9368
レド	-12.9369
パラ	-12.937
eki	-12.9379
フグ	-12.938
▁下水	-12.9381
ールディン	-12.9383
ーダス	-12.9384
▁大泉	-12.9394
▁ギル	-12.9395
▁ジェニ	-12.9396
ニッシュ	-12.9398
▁ヨシ	-12.94
▁**	-12.9402
▁バリア	-12.9404
ブリ	-12.9406
▁マーティ	-12.9411
▁匿	-12.9412
▁ディストリビュー	-12.9413
▁アカ	-12.9415
▁ダッチ	-12.9415
▁アトランティ	-12.9418
▁動き出	-12.9421
▁イグ	-12.9424
リート	-12.9427
輸出入	-12.9433
▁攻め込	-12.9434
キム	-12.9435
トラップ	-12.9435
アンス	-12.9439
ロフス	-12.944
ステラ	-12.9446
ティカ	-12.9447
スイ	-12.945
▁ブール	-12.945
▁ブリュ	-12.9453
▁ダンサ	-12.9457
▁キュン	-12.9462
▁アンティ	-12.9463
oco	-12.9464
▁マース	-12.9464
チノ	-12.9465
タックス	-12.9473
▁534	-12.9473
bye	-12.9473
▁形容	-12.9474
▁fn	-12.9475
▁ホークス	-12.9478
ドック	-12.9478
▁ny	-12.9479
メリ	-12.9482
▁長屋	-12.9487
▁乗っ取	-12.9491
ハギ	-12.9496
▁カプ	-12.9498
▁降ら	-12.9498
▁lw	-12.9499
マイン	-12.9499
▁見当	-12.9502
ナガ	-12.9502
▁いお	-12.9504
シングル	-12.9507
▁キャリー	-12.9511
▁四つ	-12.9517
▁チック	-12.952
▁vers	-12.9521
gf	-12.9522
ーデ	-12.9523
▁cher	-12.9527
▁ブラス	-12.9534
しゃ	-12.9534
rong	-12.9545
リャ	-12.9547
ディス	-12.9556
ワーズ	-12.9562
ムスチスラヴ	-12.9562
▁ドード	-12.9562
cx	-12.9564
▁ロート	-12.9566
▁ichi	-12.9566
クロー	-12.9572
018	-12.9573
スラー	-12.9574
ノーズ	-12.9576
▁中性	-12.9576
▁マウン	-12.9578
▁スキ	-12.9579
▁ku	-12.9583
▁ロスト	-12.9586
▁肩書	-12.9591
▁倣	-12.9599
а	-12.96
▁エメン	-12.9602
▁377	-12.9603
リンチ	-12.9603
ov	-12.9608
▁バザー	-12.961
▁公選	-12.9614
▁ベニ	-12.9618
リッヒ	-12.9623
▁now	-12.9624
ans	-12.9628
▁エレクトロニ	-12.9631
▁nic	-12.9631
▁sato	-12.9632
読み	-12.9641
▁見本	-12.9644
チコ	-12.9645
ュエーション	-12.9645
まし	-12.9649
▁フレンド	-12.965
▁カセット	-12.9653
▁散ら	-12.9656
▁舗	-12.9657
ger	-12.9659
サシ	-12.9659
▁西野	-12.966
▁大政	-12.9664
せん	-12.9665
▁count	-12.9666
thion	-12.9667
▁リサ	-12.9668
ーニー	-12.9669
ゼンス	-12.9669
▁パキ	-12.9672
チル	-12.9678
ノー	-12.968
ヤマ	-12.9682
▁ストー	-12.9682
▁485	-12.9686
サク	-12.9694
パラシ	-12.9695
▁323	-12.9696
mate	-12.9696
故	-12.9699
もてな	-12.9703
▁kir	-12.9708
ev	-12.9712
スカン	-12.9712
ids	-12.9712
ノサ	-12.9716
テリア	-12.9722
ther	-12.9723
▁クロウ	-12.9728
フェロ	-12.9728
▁gott	-12.973
▁ベレ	-12.9731
ラング	-12.9735
レジア	-12.9738
ムエ	-12.9741
▁弦楽	-12.9746
▁引き込	-12.9747
リフト	-12.9748
▁二本	-12.9749
anno	-12.9751
▁ときわ	-12.9759
▁シモン	-12.9763
▁コンパイ	-12.9767
▁sho	-12.9772
ブラック	-12.9772
ビレ	-12.9774
イジ	-12.9775
キャンプ	-12.9779
▁プラネ	-12.9781
▁ヘルム	-12.9782
▁大阪女子	-12.9787
スティチュー	-12.9794
ハー	-12.9796
▁クラウ	-12.9803
rs	-12.9809
▁家政学	-12.9813
ネオ	-12.9814
ファイト	-12.9815
▁大石	-12.982
▁メチルウ	-12.9824
ファリ	-12.9824
タノ	-12.9826
▁木場	-12.9827
▁regel	-12.9827
ナイル	-12.9827
▁ソラ	-12.9829
ペース	-12.983
なし	-12.9839
▁418	-12.9841
ndon	-12.9843
カール	-12.9848
mack	-12.985
ヴェラ	-12.9857
▁被り	-12.9859
ケーション	-12.986
デネ	-12.9867
▁kira	-12.9871
ギラ	-12.9875
▁二の	-12.9876
▁518	-12.9885
▁275	-12.9886
▁流動	-12.9887
▁""』	-12.9899
イフェル	-12.9899
▁シュレ	-12.99
▁531	-12.9916
たえ	-12.9925
ェーラ	-12.9925
サマー	-12.9926
▁泊ま	-12.9928
ネットワーク	-12.9929
ロファ	-12.9932
ビーニョ	-12.9933
▁振り切	-12.9942
▁ze	-12.9947
▁ポル	-12.9948
▁ビハ	-12.9948
▁alexand	-12.9951
▁423	-12.9958
ジエ	-12.9966
▁ワックス	-12.9966
しご	-12.9967
ーヒ	-12.9968
本木	-12.9976
マリ	-12.9978
▁グリニ	-12.9979
んで	-12.9983
tor	-12.9983
ロフィー	-12.9984
タック	-12.9987
bo	-12.9989
キヤ	-12.9996
▁kid	-12.9996
rain	-12.9999
▁いづ	-13.0006
uri	-13.0008
イヴ	-13.0012
パース	-13.0012
▁エドゥ	-13.0016
▁染ま	-13.0017
▁キルケ	-13.0018
ボエ	-13.0025
ロシア	-13.0025
クロン	-13.0032
▁475	-13.0035
ber	-13.0037
仲	-13.0038
都留	-13.0039
ji	-13.0042
pd	-13.0042
▁アイディ	-13.0044
ぶん	-13.0046
▁cra	-13.0046
ービル	-13.0048
プレス	-13.0049
ivi	-13.005
dge	-13.0052
▁古事	-13.0054
▁生田	-13.0054
▁目の	-13.0055
rate	-13.0055
▁om	-13.0058
いさん	-13.0059
▁シクロ	-13.0059
▁シェイ	-13.0061
リンド	-13.0066
ヤム	-13.0072
▁いこ	-13.0073
▁onl	-13.0075
▁ポテンシ	-13.0075
モンズ	-13.0076
ツネ	-13.0081
▁きし	-13.0081
▁ペニ	-13.009
▁431	-13.0094
kawa	-13.0099
chu	-13.0105
エニ	-13.0107
sin	-13.0108
▁マドリ	-13.0109
トー	-13.0109
▁ソーダ	-13.0117
フチトリゲンゴロウ	-13.0123
ピデ	-13.0127
▁パウ	-13.0127
レーヌ	-13.0129
▁教わ	-13.013
▁ドール	-13.0134
▁gui	-13.0138
▁ソノ	-13.0139
ティエ	-13.0141
ポーツ	-13.0141
▁mill	-13.0142
ゼット	-13.0145
焦	-13.015
▁ラザ	-13.0151
サント	-13.0154
アクト	-13.0154
デストロイ	-13.0155
ks	-13.0156
蓮	-13.0167
ific	-13.0168
フィットネス	-13.0168
build	-13.0168
グッ	-13.0172
eel	-13.0178
▁創り	-13.0181
ヒコ	-13.0182
rn	-13.0183
凰	-13.0183
ギブソン	-13.0183
ブルージ	-13.0186
ユニット	-13.0186
祇	-13.0187
麟	-13.019
脂	-13.0193
ウィズ	-13.0193
キャップ	-13.0193
=	-13.0194
靭	-13.0194
舷	-13.0196
ベガ	-13.0196
▁ぶつか	-13.0199
レアル	-13.0199
ウィルソン	-13.0199
メット	-13.02
疎	-13.02
箕	-13.0201
吹	-13.0201
弦	-13.0201
萌	-13.0202
ルン	-13.0202
▁トゥル	-13.0202
描	-13.0202
禅	-13.0203
附	-13.0203
チェーン	-13.0203
ムーア	-13.0204
刃	-13.0204
横	-13.0204
淡	-13.0204
ビジュアル	-13.0205
支	-13.0205
ship	-13.0205
ユナイテッド	-13.0205
break	-13.0205
狩	-13.0205
凍	-13.0205
誓	-13.0205
▁ダイバー	-13.0206
ブストーリー	-13.0206
綿	-13.0206
プリ	-13.0206
翅	-13.0207
就	-13.0207
グア	-13.0207
デザイナー	-13.0207
卓	-13.0207
栗	-13.0207
ジェット	-13.0207
闇	-13.0207
猿	-13.0208
鼻	-13.0208
芳	-13.0208
昔	-13.0208
抵	-13.0209
尊	-13.0209
背	-13.0209
berg	-13.0209
圏	-13.0209
鈴	-13.0209
桜	-13.0209
オーディション	-13.0209
逃げ	-13.0209
ヤング	-13.021
サイズ	-13.0215
ブロック	-13.0216
ピラ	-13.0216
カート	-13.0217
温泉	-13.0217
ヌール	-13.0217
規則	-13.0218
ドリーム	-13.0219
▁498	-13.0219
わざ	-13.0219
ナチ	-13.0222
▁mom	-13.0224
cz	-13.0224
ドノ	-13.0225
ゴーグ	-13.0231
▁sta	-13.0232
付き	-13.0234
由美	-13.0235
ャル	-13.0237
そこ	-13.0242
▁形作	-13.0242
▁ユカ	-13.0246
美術	-13.0247
003	-13.025
ルガー	-13.0254
▁惚れ	-13.0254
tory	-13.0255
▁stra	-13.0256
▁スラヴ	-13.0261
ボード	-13.0263
ssa	-13.0265
レジ	-13.0266
コース	-13.0266
▁est	-13.0269
▁生れ	-13.0269
ゼール	-13.0269
▁救い	-13.0273
ーグル	-13.0277
ウケ	-13.0277
松山	-13.0283
▁スルー	-13.0285
グラフ	-13.0285
▁マレ	-13.0289
ガード	-13.0291
▁セビ	-13.0303
▁スラ	-13.0308
▁ローダ	-13.0313
タケ	-13.0313
▁アベ	-13.0318
▁ひい	-13.0323
パリ	-13.0324
ベースボール	-13.0327
マリー	-13.0328
▁ito	-13.0329
▁jeff	-13.0331
ユース	-13.0335
ボルド	-13.0336
▁julie	-13.0336
じま	-13.0337
カネ	-13.034
ピニ	-13.034
ディル	-13.0343
▁傾け	-13.035
than	-13.0352
▁danc	-13.0352
▁batt	-13.0356
ida	-13.0368
ana	-13.0369
▁gem	-13.0375
▁スッ	-13.0376
リュ	-13.0376
ビール	-13.0381
wood	-13.0399
ten	-13.0404
とみ	-13.0405
リフ	-13.0405
▁しょう	-13.0409
ung	-13.0411
▁ファイ	-13.0412
神宮	-13.0413
▁挟み	-13.0419
オニ	-13.0419
uta	-13.0421
ose	-13.0423
▁シトロ	-13.0423
ッヒ	-13.043
レイソ	-13.0433
グラード	-13.0434
イアン	-13.0434
▁rom	-13.0435
▁ホイット	-13.0439
マラン	-13.0442
▁ジェノ	-13.0445
ヒオ	-13.0449
▁プロレ	-13.0449
▁ネク	-13.0449
語り	-13.0455
▁檀	-13.0457
▁hit	-13.0461
▁サマ	-13.0461
▁エスピ	-13.0462
cd	-13.0462
帰り	-13.0463
▁ハイパー	-13.0464
ウォル	-13.0464
エール	-13.0466
ーマン	-13.0467
▁義兄	-13.0467
ニャン	-13.0469
ィッシュ	-13.047
ngo	-13.0472
ベラ	-13.0472
こま	-13.0473
▁サウ	-13.0475
オア	-13.0475
▁315	-13.0481
シルバ	-13.0482
▁リト	-13.0483
▁アラウン	-13.0483
▁anima	-13.0485
▁プロテク	-13.0486
▁chee	-13.0487
▁dir	-13.0487
▁micro	-13.0489
▁histori	-13.0489
ウェイン	-13.0492
▁潔	-13.0497
ユア	-13.0497
ó	-13.0498
ニィ	-13.0501
▁粟	-13.0503
グサ	-13.0503
▁nov	-13.0503
下ろ	-13.0503
▁押し込	-13.0504
▁ラッパ	-13.0504
なみ	-13.0505
コロシアム	-13.0505
▁アーリア	-13.0506
lett	-13.0506
▁アフタ	-13.0506
ヂ	-13.0507
グランデ	-13.0507
ブラル	-13.0507
▁ジミ	-13.0507
▁窺	-13.0507
ソロ	-13.0508
▁倶	-13.0508
construct	-13.0508
▁hold	-13.0508
wrg	-13.0508
▁戊	-13.0508
▁south	-13.0508
▁インペリアル	-13.0508
▁フィガローラ	-13.0508
▁ルートヴィヒ	-13.0508
陀	-13.0508
ã	-13.0508
π	-13.0508
─	-13.0508
▁college	-13.0508
▁kritosaur	-13.0508
▁percussion	-13.0508
▁picture	-13.0508
▁∈	-13.0508
▁アラマチー	-13.0508
▁エイプリルフール	-13.0508
▁ケメネ	-13.0508
▁コニカミノルタ	-13.0508
▁サイボウズ	-13.0508
▁シミュレータ	-13.0508
▁ジュピター	-13.0508
▁スタニスラフ	-13.0508
▁ニューカッスル	-13.0508
▁パワプロ	-13.0508
▁パーシッパニー	-13.0508
▁ファンタジスタ	-13.0508
▁フルボッコ	-13.0508
▁レッドクルシブル	-13.0508
▁伺	-13.0508
▁俯	-13.0508
▁冶	-13.0508
▁卜	-13.0508
▁取り締ま	-13.0508
▁吳	-13.0508
▁壱	-13.0508
▁娶	-13.0508
▁彗	-13.0508
▁旺	-13.0508
▁橈	-13.0508
▁欣	-13.0508
▁琥	-13.0508
▁生き延び	-13.0508
▁租	-13.0508
▁稔	-13.0508
▁美鈴が丘	-13.0508
▁肋	-13.0508
▁脅し	-13.0508
▁臆病	-13.0508
▁蝋	-13.0508
▁轟	-13.0508
▁醜	-13.0508
▁鋸	-13.0508
▁雛	-13.0508
▁鯉	-13.0508
ゞ	-13.0508
モチベーション	-13.0508
伍	-13.0508
傅	-13.0508
兜	-13.0508
冑	-13.0508
勰	-13.0508
只	-13.0508
坏	-13.0508
壕	-13.0508
奢	-13.0508
妓	-13.0508
嶼	-13.0508
幀	-13.0508
慨	-13.0508
揄	-13.0508
揶	-13.0508
斤	-13.0508
栞	-13.0508
漱	-13.0508
瑾	-13.0508
矩	-13.0508
罠	-13.0508
芯	-13.0508
謂	-13.0508
躯	-13.0508
輌	-13.0508
錮	-13.0508
霜	-13.0508
顗	-13.0508
餅	-13.0508
餐	-13.0508
鰐	-13.0508
鵬	-13.0508
▁キッタティニー	-13.0508
▁ジメチル	-13.0508
サイクリング	-13.0508
▁africa	-13.0508
▁championship	-13.0508
▁miracle	-13.0508
▁perform	-13.0508
▁secret	-13.0508
▁びじゅつかん	-13.0508
▁アーキテク	-13.0508
▁アートアクアリウム	-13.0508
▁クリーブランド	-13.0508
▁トリビュート	-13.0508
▁賃貸	-13.0508
▁釈迦	-13.0508
▁カンパニア	-13.0508
▁フォッジャ	-13.0508
▁プレッシャープローブ	-13.0508
▁monster	-13.0508
▁だんだん	-13.0508
▁アトレティコ	-13.0508
▁chem	-13.0508
▁シャンプレーン	-13.0508
▁leedsi	-13.0508
▁look	-13.0508
▁ブラッディ	-13.0508
▁キマワリ	-13.0508
▁バンダイナムコ	-13.0508
▁筑摩	-13.0508
▁arrange	-13.0508
▁ビャルニ	-13.0508
▁レプリカ	-13.0508
▁トリフェニルア	-13.0508
▁連れ戻	-13.0508
▁バッファロー	-13.0508
▁フェミニ	-13.0508
▁取り掛か	-13.0508
▁ピッツバーグ	-13.0509
ヘアカット	-13.0509
▁premi	-13.0509
▁acid	-13.0509
▁寒冷	-13.0509
▁郵政	-13.0509
▁ロナルド	-13.0509
▁乗り換え	-13.0509
▁問いかけ	-13.0509
▁織り込	-13.0509
サリチル	-13.0509
▁linked	-13.0509
▁コバルト	-13.0509
▁キウイ	-13.0509
▁コナミ	-13.0509
ストリーム	-13.0509
▁奪い返	-13.0509
▁ネー	-13.0509
▁boot	-13.0509
▁追い返	-13.0509
▁north	-13.0509
▁ミソラ	-13.0509
▁パメラ	-13.0509
▁ザイール	-13.0509
▁nava	-13.0509
▁紀伊	-13.0509
▁コメット	-13.0509
▁呼び掛け	-13.0509
清水	-13.0509
▁palmit	-13.0509
▁イサカ	-13.0509
▁粟津	-13.0509
▁level	-13.0509
▁コンチョ	-13.0509
▁引き裂	-13.0509
▁ジュエル	-13.051
▁解き放	-13.051
▁貰え	-13.051
▁イゴール	-13.051
▁ハードニング	-13.051
ベーカリー	-13.051
ヴォロ	-13.051
▁found	-13.051
▁スペード	-13.051
▁プロペラ	-13.051
▁吾妻	-13.051
▁取り下げ	-13.051
▁あやめ	-13.051
▁マグネ	-13.051
▁突き放	-13.051
▁ヤブ	-13.051
▁タイブレー	-13.051
▁margin	-13.051
▁軽便	-13.051
▁鞍馬	-13.0511
▁ステルス	-13.0511
ldh	-13.0511
▁鍋倉	-13.0511
アドニス	-13.0511
▁二枚	-13.0511
▁千歳	-13.0511
▁ムク	-13.0511
▁sax	-13.0511
▁遊べ	-13.0511
マイシン	-13.0511
▁オレグ	-13.0511
▁メーベル	-13.0511
iyah	-13.0512
▁スライド	-13.0512
▁パナール	-13.0512
▁投げかけ	-13.0512
▁ロッド	-13.0512
▁取り返	-13.0512
▁立ち並	-13.0512
▁スタンリー	-13.0512
▁hyper	-13.0512
▁浄土	-13.0512
▁dai	-13.0512
▁智恵	-13.0512
ホイテ	-13.0513
▁サトウ	-13.0513
▁インスタ	-13.0513
▁maj	-13.0513
▁代々木	-13.0513
▁立て直	-13.0513
トシゴ	-13.0513
▁sevent	-13.0513
ガガ	-13.0514
living	-13.0514
▁冷え	-13.0514
▁ホビー	-13.0514
▁nfl	-13.0514
チョウ	-13.0515
▁菜種	-13.0515
▁邑知	-13.0515
▁縛	-13.0515
▁fina	-13.0515
レイト	-13.0515
▁ミルトン	-13.0515
治医	-13.0515
▁ハイデル	-13.0516
▁licen	-13.0516
▁ヒルトン	-13.0516
▁ユスティ	-13.0516
▁出遅れ	-13.0516
▁住み着	-13.0517
▁八重山	-13.0517
「""」	-13.0517
▁ハガ	-13.0518
▁養父	-13.0518
▁有希	-13.0518
リヒリ	-13.0518
▁ソーナ	-13.0518
ディクソン	-13.0518
▁brother	-13.0518
▁ロップ	-13.0519
▁クロード	-13.0519
▁マジ	-13.0519
▁エウ	-13.052
▁裏付け	-13.052
ハイテク	-13.052
▁アンヌ	-13.0521
カービン	-13.0521
▁プラット	-13.0521
▁ヒース	-13.0522
▁hearts	-13.0522
ロッティング	-13.0522
小学	-13.0523
▁nok	-13.0523
▁栄治	-13.0523
▁blood	-13.0523
▁インディー	-13.0524
▁不参	-13.0524
▁面倒	-13.0524
▁こじ	-13.0525
バッティング	-13.0526
シーズ	-13.0526
▁triphosph	-13.0526
▁三十	-13.0526
ボケ	-13.0527
スタイガー	-13.0527
▁ねえ	-13.0527
shita	-13.0527
スティーム	-13.0527
▁見いだ	-13.0528
▁grg	-13.0528
jov	-13.0528
ガネ	-13.0528
▁make	-13.0529
▁シバ	-13.0529
▁誠一	-13.053
モーターサイクル	-13.053
▁すばや	-13.053
▁リドル	-13.053
yao	-13.053
▁スパン	-13.0531
▁下総	-13.0531
くしゃ	-13.0531
クラッチ	-13.0533
▁かざ	-13.0534
ニャ	-13.0534
▁おだ	-13.0534
▁龍岡	-13.0534
▁ファミコン	-13.0535
▁hall	-13.0536
▁荻原	-13.0536
▁振り回	-13.0536
▁于	-13.0536
▁呑	-13.0536
▁惠	-13.0536
▁漕	-13.0536
▁酪	-13.0536
▁鼠	-13.0536
▁anime	-13.0536
▁ガルガンチュ	-13.0536
▁スウィフト	-13.0536
▁旭日	-13.0536
▁レジスタンス	-13.0536
▁human	-13.0537
▁チミジ	-13.0537
▁ファイティング	-13.0537
▁イノシトール	-13.0537
モバイル	-13.0537
▁アシュトン	-13.0537
ストレージ	-13.0537
▁マーライ	-13.0537
▁ハーレム	-13.0537
▁アントン	-13.0538
▁シエラ	-13.0538
▁フライング	-13.0538
▁ウィンザー	-13.0539
だいいち	-13.0539
▁data	-13.0539
▁学習院	-13.0539
▁潜り込	-13.054
vex	-13.054
▁force	-13.054
kbo	-13.0541
▁サンジ	-13.0541
▁ロフト	-13.0541
▁アクトン	-13.0542
▁スイート	-13.0542
トマ	-13.0542
right	-13.0542
グレイヴ	-13.0543
ちこ	-13.0543
yd	-13.0543
なせ	-13.0543
were	-13.0544
▁"=	-13.0545
▁あやか	-13.0545
▁ルアン	-13.0546
▁カミング	-13.0546
▁収納	-13.0548
▁レイフ	-13.0549
▁引き落と	-13.0549
イェシ	-13.0549
ッサム	-13.0549
imat	-13.0549
▁ヘンドリック	-13.055
▁可愛が	-13.055
▁ots	-13.0551
▁エピック	-13.0552
ルデア	-13.0552
▁アイランド	-13.0553
▁むす	-13.0553
▁シーラ	-13.0553
▁東京医科	-13.0553
62	-13.0555
▁乗り継	-13.0555
▁オダ	-13.0556
▁瀬野	-13.0556
▁危ぶ	-13.0556
▁pier	-13.0556
▁スパーク	-13.0556
▁vhs	-13.0556
▁guide	-13.0556
▁ut	-13.0558
▁track	-13.0558
▁みえ	-13.0558
▁スペル	-13.0558
▁ビューティ	-13.0559
▁テコ	-13.0559
▁ブレス	-13.056
かえ	-13.056
▁ファイアー	-13.056
▁アスパ	-13.0561
▁見破	-13.0562
▁報知	-13.0564
ェラー	-13.0565
▁fighter	-13.0565
▁アニー	-13.0567
▁シリアス	-13.0567
tube	-13.0567
▁宝島	-13.0568
パーモタード	-13.0569
▁via	-13.0569
▁ret	-13.0571
▁ぱん	-13.0571
▁理工	-13.0575
▁ホウ	-13.0576
▁エスパー	-13.0576
ヘルツ	-13.0576
▁救い出	-13.0576
ナリン	-13.0578
▁ryo	-13.0579
ジリ	-13.058
▁蝶	-13.058
キュリー	-13.0582
オドア	-13.0582
▁有す	-13.0583
モンキー	-13.0583
▁陥れ	-13.0584
▁若葉	-13.0584
▁limit	-13.0585
▁坐	-13.0585
▁禍	-13.0585
▁胎	-13.0585
▁遙	-13.0585
▁鳶	-13.0585
▁レジェンド	-13.0585
▁パウンド	-13.0585
▁クライシュ	-13.0585
▁フルオロ	-13.0586
▁京都市立	-13.0586
▁ディプロ	-13.0586
▁ザルツ	-13.0586
▁ジェーン	-13.0586
スラウ	-13.0587
ナイター	-13.0587
▁フランケン	-13.0587
▁nih	-13.0588
▁エッジ	-13.059
▁永谷	-13.0591
▁fim	-13.0591
ニオ	-13.0592
▁ヘイリー	-13.0592
▁眠ら	-13.0592
チェス	-13.0592
▁コープス	-13.0592
▁アポ	-13.0593
▁パルス	-13.0593
バイザー	-13.0594
led	-13.0595
しだ	-13.0596
調べ	-13.0596
▁ブーバー	-13.0597
▁made	-13.0597
オク	-13.0598
シュト	-13.0598
使い	-13.0602
ur	-13.0602
▁carlo	-13.0605
▁fr	-13.0605
mt	-13.0607
▁link	-13.0608
into	-13.061
▁ジャガー	-13.0613
誘致	-13.0613
▁膨ら	-13.0615
▁めく	-13.0615
▁キルステ	-13.0616
▁ヴォー	-13.0619
е	-13.0619
▁ナカ	-13.062
▁売り込	-13.0624
チキン	-13.0624
▁外輪	-13.0625
カリー	-13.0625
▁金城	-13.0628
nts	-13.0629
▁ブランドン	-13.063
▁踏み込	-13.0631
▁お客	-13.0631
ディフェンス	-13.0632
まだ	-13.0634
▁ピクシー	-13.0635
▁嘗	-13.0636
▁津田	-13.0636
▁曇	-13.0636
▁レーシング	-13.0636
▁ブラウザ	-13.0636
▁アキレス	-13.0637
▁スピッツ	-13.0637
ムント	-13.0637
ルフ	-13.0637
ホルダー	-13.0638
▁カイザー	-13.064
けんじ	-13.0641
▁クレイグ	-13.0641
アングル	-13.0642
tary	-13.0644
▁640	-13.0644
▁バッファ	-13.0645
ンソク	-13.0645
▁シュラ	-13.0649
▁!!!』	-13.0649
▁一目	-13.065
▁北小	-13.065
▁モンスターズ	-13.0651
▁手放	-13.0651
▁ヴァンダ	-13.0652
アプリケーション	-13.0652
▁910	-13.0654
▁クイ	-13.0656
▁山之	-13.0656
ヤンマ	-13.0657
▁勝ち抜	-13.066
ラップ	-13.0661
つみ	-13.0661
▁アイム	-13.0663
▁岩見	-13.0667
▁シャワー	-13.0667
▁ノックス	-13.0669
▁east	-13.067
パラリンピック	-13.067
▁くみ	-13.0672
ドバック	-13.0672
薬科	-13.0674
▁カブ	-13.0674
▁green	-13.0679
ーフ	-13.0679
▁グルト	-13.0681
▁ハニカ	-13.0685
▁ファイヤー	-13.0688
▁アウレ	-13.0688
▁キャンベル	-13.0688
uku	-13.0689
▁jeffr	-13.069
▁かかわり	-13.0691
うへい	-13.0692
▁ギルバート	-13.0694
エスポ	-13.0694
コンテ	-13.0695
ポタ	-13.0697
ペディ	-13.0697
▁エドマン	-13.0698
▁š	-13.0699
▁テアト	-13.07
▁シンフォニ	-13.0705
▁オロ	-13.0705
í	-13.0705
▁召し	-13.0706
vc	-13.0712
532	-13.0714
▁ハッジ	-13.0715
▁タイラー	-13.0719
▁ジャンク	-13.0719
▁はばた	-13.0721
▁一院	-13.0722
ves	-13.0724
プレ	-13.0724
リュブリ	-13.0724
ブースター	-13.0729
aq	-13.0731
ock	-13.0732
ンスタンティ	-13.0734
ージョ	-13.0735
eno	-13.0737
ロードカ	-13.0737
▁abra	-13.0738
▁稜	-13.0739
▁program	-13.0739
▁468	-13.0739
▁スタンレー	-13.074
▁mini	-13.0741
▁lamin	-13.0741
▁ダブ	-13.0742
▁ティッシュ	-13.0743
▁ポッド	-13.0747
シム	-13.0749
山県	-13.075
▁エキスパ	-13.0751
▁278	-13.0756
▁授か	-13.0756
▁辛く	-13.0756
▁クローバ	-13.0759
▁モンテ	-13.0762
▁gil	-13.0763
▁キャンディー	-13.0765
▁ホム	-13.0767
▁luc	-13.0767
▁marine	-13.0769
▁comic	-13.0769
ゲレー	-13.0771
▁天理	-13.0772
▁取り合	-13.0773
▁クィーンズ	-13.0778
フォーカス	-13.0779
rika	-13.078
▁一段	-13.0784
▁ょうい	-13.0785
▁001	-13.0785
▁216	-13.079
▁丸子	-13.0791
▁カンタ	-13.0793
▁medic	-13.0798
スタディ	-13.0798
▁黒川	-13.0798
▁ベンガ	-13.0799
タイル	-13.0801
農工	-13.0804
▁いじ	-13.0806
▁1231	-13.0811
▁hara	-13.0812
▁トランペッ	-13.0818
▁ウリ	-13.0825
▁ぎり	-13.0825
▁rap	-13.0826
イー	-13.0836
ell	-13.0838
ubo	-13.0839
▁photo	-13.084
mpa	-13.084
▁賃	-13.0844
▁凰	-13.0844
▁ギブソン	-13.0845
▁berg	-13.0846
▁すっ	-13.0846
ペンダー	-13.0848
ビエル	-13.0849
トロー	-13.0852
▁302	-13.0853
▁オニ	-13.0854
▁書き込	-13.0856
▁arm	-13.0866
▁ウィズ	-13.0868
▁ニシ	-13.0869
▁ホグ	-13.0873
▁314	-13.0874
サントス	-13.0874
ブロウ	-13.088
▁ig	-13.0881
▁ノーマン	-13.0882
ローン	-13.0886
ベグ	-13.0887
iba	-13.0888
ステー	-13.0889
ジナル	-13.0893
▁lu	-13.0895
▁迷い込	-13.0898
▁豊後	-13.09
[...]
